{
  "version": "1.0",
  "truncation": null,
  "padding": null,
  "added_tokens": [
    {
      "id": 0,
      "content": "[PAD]",
      "single_word": false,
      "lstrip": false,
      "rstrip": false,
      "normalized": false,
      "special": true
    },
    {
      "id": 1,
      "content": "[UNK]",
      "single_word": false,
      "lstrip": false,
      "rstrip": false,
      "normalized": false,
      "special": true
    },
    {
      "id": 2,
      "content": "[CLS]",
      "single_word": false,
      "lstrip": false,
      "rstrip": false,
      "normalized": false,
      "special": true
    },
    {
      "id": 3,
      "content": "[SEP]",
      "single_word": false,
      "lstrip": false,
      "rstrip": false,
      "normalized": false,
      "special": true
    },
    {
      "id": 4,
      "content": "[MASK]",
      "single_word": false,
      "lstrip": false,
      "rstrip": false,
      "normalized": false,
      "special": true
    }
  ],
  "normalizer": {
    "type": "Sequence",
    "normalizers": [
      {
        "type": "Replace",
        "pattern": {
          "String": "``"
        },
        "content": "\""
      },
      {
        "type": "Replace",
        "pattern": {
          "String": "''"
        },
        "content": "\""
      },
      {
        "type": "NFC"
      },
      {
        "type": "Lowercase"
      }
    ]
  },
  "pre_tokenizer": {
    "type": "Sequence",
    "pretokenizers": [
      {
        "type": "WhitespaceSplit"
      },
      {
        "type": "Punctuation",
        "behavior": "Isolated"
      },
      {
        "type": "Digits",
        "individual_digits": false
      },
      {
        "type": "Metaspace",
        "replacement": "▁",
        "prepend_scheme": "always",
        "split": true
      }
    ]
  },
  "post_processor": {
    "type": "TemplateProcessing",
    "single": [
      {
        "SpecialToken": {
          "id": "[CLS]",
          "type_id": 0
        }
      },
      {
        "Sequence": {
          "id": "A",
          "type_id": 0
        }
      },
      {
        "SpecialToken": {
          "id": "[SEP]",
          "type_id": 0
        }
      }
    ],
    "pair": [
      {
        "SpecialToken": {
          "id": "[CLS]",
          "type_id": 0
        }
      },
      {
        "Sequence": {
          "id": "A",
          "type_id": 0
        }
      },
      {
        "SpecialToken": {
          "id": "[SEP]",
          "type_id": 0
        }
      },
      {
        "Sequence": {
          "id": "B",
          "type_id": 1
        }
      },
      {
        "SpecialToken": {
          "id": "[SEP]",
          "type_id": 1
        }
      }
    ],
    "special_tokens": {
      "[CLS]": {
        "id": "[CLS]",
        "ids": [
          2
        ],
        "tokens": [
          "[CLS]"
        ]
      },
      "[SEP]": {
        "id": "[SEP]",
        "ids": [
          3
        ],
        "tokens": [
          "[SEP]"
        ]
      }
    }
  },
  "decoder": {
    "type": "Metaspace",
    "replacement": "▁",
    "prepend_scheme": "always",
    "split": true
  },
  "model": {
    "type": "Unigram",
    "unk_id": 1,
    "vocab": [
      [
        "[PAD]",
        0.0
      ],
      [
        "[UNK]",
        0.0
      ],
      [
        "[CLS]",
        0.0
      ],
      [
        "[SEP]",
        0.0
      ],
      [
        "[MASK]",
        0.0
      ],
      [
        "▁",
        -1.5742175311842317
      ],
      [
        ",",
        -3.120248454406017
      ],
      [
        "a",
        -3.2822385266539627
      ],
      [
        "o",
        -3.3829636135935104
      ],
      [
        "▁de",
        -3.4712779751142797
      ],
      [
        "s",
        -3.583217035882175
      ],
      [
        "e",
        -3.622873060551509
      ],
      [
        ".",
        -3.8202783580134216
      ],
      [
        "▁que",
        -4.226708442100858
      ],
      [
        "▁do",
        -4.524636145238368
      ],
      [
        "▁da",
        -4.665680174909259
      ],
      [
        "▁em",
        -4.777222439737631
      ],
      [
        "▁para",
        -4.99920795383013
      ],
      [
        "u",
        -5.007351948999506
      ],
      [
        "▁com",
        -5.039433114442591
      ],
      [
        "-",
        -5.091176955026629
      ],
      [
        "▁um",
        -5.160760753157234
      ],
      [
        "\"",
        -5.2165107855911685
      ],
      [
        "m",
        -5.224890480555494
      ],
      [
        "▁no",
        -5.229637727671275
      ],
      [
        "é",
        -5.255133343179448
      ],
      [
        "▁se",
        -5.3147556679559855
      ],
      [
        "r",
        -5.315512982852887
      ],
      [
        "▁na",
        -5.366258539504223
      ],
      [
        "▁uma",
        -5.401426090027215
      ],
      [
        ")",
        -5.458034471887835
      ],
      [
        "(",
        -5.492889451209386
      ],
      [
        "▁não",
        -5.539570714071626
      ],
      [
        "▁por",
        -5.597274125460867
      ],
      [
        "i",
        -5.633291397783676
      ],
      [
        "d",
        -5.722199199793284
      ],
      [
        "▁como",
        -5.830975972171245
      ],
      [
        "n",
        -5.830999535881645
      ],
      [
        "▁mais",
        -5.90179164497313
      ],
      [
        "▁dos",
        -5.955738834578121
      ],
      [
        "l",
        -6.060052911311725
      ],
      [
        "t",
        -6.138689822615911
      ],
      [
        "c",
        -6.18894057593473
      ],
      [
        "▁foi",
        -6.240008075983864
      ],
      [
        "p",
        -6.260999026581226
      ],
      [
        "▁sua",
        -6.409572701660235
      ],
      [
        "à",
        -6.422129997339823
      ],
      [
        "▁mas",
        -6.430154426735365
      ],
      [
        "▁das",
        -6.442749107750663
      ],
      [
        "▁ser",
        -6.451153683530251
      ],
      [
        ":",
        -6.455125037002281
      ],
      [
        "▁são",
        -6.5259486757804765
      ],
      [
        "▁seu",
        -6.581098584751578
      ],
      [
        "▁pelo",
        -6.652612631976805
      ],
      [
        "▁pela",
        -6.688037306129607
      ],
      [
        ";",
        -6.705233763736048
      ],
      [
        "▁ele",
        -6.791722706192221
      ],
      [
        "▁também",
        -6.815600334140223
      ],
      [
        "f",
        -6.845253135187235
      ],
      [
        "▁tem",
        -6.863900476055369
      ],
      [
        "g",
        -6.86749177879463
      ],
      [
        "▁entre",
        -6.89362092940857
      ],
      [
        "/",
        -6.907399635832622
      ],
      [
        "▁nos",
        -6.908332377426575
      ],
      [
        "▁sobre",
        -6.909020629308273
      ],
      [
        "h",
        -6.927609615105899
      ],
      [
        "▁já",
        -6.9289224747119995
      ],
      [
        "b",
        -6.933858977924167
      ],
      [
        "▁quando",
        -6.996887814929469
      ],
      [
        "v",
        -7.020518744421732
      ],
      [
        "–",
        -7.049638825401393
      ],
      [
        "▁até",
        -7.050817759362477
      ],
      [
        "1",
        -7.051796584009072
      ],
      [
        "▁muito",
        -7.059857272643443
      ],
      [
        "▁anos",
        -7.076599000887072
      ],
      [
        "▁mesmo",
        -7.082382984001365
      ],
      [
        "ndo",
        -7.0920654352467825
      ],
      [
        "▁ainda",
        -7.166231227738985
      ],
      [
        "á",
        -7.191587766951901
      ],
      [
        "▁está",
        -7.193553756394612
      ],
      [
        "2",
        -7.196085984183423
      ],
      [
        "▁pode",
        -7.200661271966958
      ],
      [
        "!",
        -7.251321596354337
      ],
      [
        "▁dia",
        -7.252932325944714
      ],
      [
        "▁sem",
        -7.282154270049096
      ],
      [
        "▁aos",
        -7.299980392285427
      ],
      [
        "▁seus",
        -7.301380214909255
      ],
      [
        "▁bem",
        -7.351554476008403
      ],
      [
        "▁isso",
        -7.35595301611056
      ],
      [
        "▁você",
        -7.37941064147561
      ],
      [
        "%",
        -7.413557419491401
      ],
      [
        "▁todos",
        -7.417715294249396
      ],
      [
        "3",
        -7.418300289116134
      ],
      [
        "▁ter",
        -7.421202065631117
      ],
      [
        "▁era",
        -7.434429039492608
      ],
      [
        "▁nas",
        -7.434701553610624
      ],
      [
        "▁forma",
        -7.45814963739288
      ],
      [
        "▁grande",
        -7.481498564116501
      ],
      [
        "▁ela",
        -7.485318126889251
      ],
      [
        "▁onde",
        -7.497791160663521
      ],
      [
        "▁brasil",
        -7.503747385561514
      ],
      [
        "?",
        -7.511232487656864
      ],
      [
        "▁ano",
        -7.517142698217871
      ],
      [
        "▁tempo",
        -7.527330532286822
      ],
      [
        "▁só",
        -7.539746432004525
      ],
      [
        "5",
        -7.551143932219219
      ],
      [
        "▁foram",
        -7.553894675300992
      ],
      [
        "▁vida",
        -7.554833485927245
      ],
      [
        "▁pessoas",
        -7.574224348991267
      ],
      [
        "k",
        -7.576278355858516
      ],
      [
        "▁parte",
        -7.581696001576017
      ],
      [
        "▁estado",
        -7.582804065903755
      ],
      [
        "▁além",
        -7.590419045479406
      ],
      [
        "▁assim",
        -7.59773079036175
      ],
      [
        "▁há",
        -7.601881795853497
      ],
      [
        "▁trabalho",
        -7.605656320003092
      ],
      [
        "▁outros",
        -7.613327739971313
      ],
      [
        "4",
        -7.62159835368046
      ],
      [
        "▁fazer",
        -7.631375345833257
      ],
      [
        "▁depois",
        -7.634527985052124
      ],
      [
        "▁suas",
        -7.650904174558955
      ],
      [
        "ram",
        -7.668688971858849
      ],
      [
        "▁segundo",
        -7.669066388860298
      ],
      [
        "▁cada",
        -7.669881535639496
      ],
      [
        "▁às",
        -7.672394438155363
      ],
      [
        "y",
        -7.685023219752971
      ],
      [
        "'",
        -7.685124591959363
      ],
      [
        "▁este",
        -7.686585465883033
      ],
      [
        "▁vez",
        -7.69353722943681
      ],
      [
        "▁apenas",
        -7.702587529003443
      ],
      [
        "▁seja",
        -7.724891485311621
      ],
      [
        "▁mundo",
        -7.725601659611575
      ],
      [
        "z",
        -7.7289920796992035
      ],
      [
        "▁pois",
        -7.732282481391401
      ],
      [
        "▁dois",
        -7.735146864373329
      ],
      [
        "mos",
        -7.744128335823701
      ],
      [
        "▁maior",
        -7.74811928883152
      ],
      [
        "▁sendo",
        -7.751517362404252
      ],
      [
        "▁contra",
        -7.761271621838564
      ],
      [
        "▁esse",
        -7.764530085252561
      ],
      [
        "▁porque",
        -7.765487395418056
      ],
      [
        "▁esta",
        -7.775393635324182
      ],
      [
        "▁cidade",
        -7.797974101798451
      ],
      [
        "▁essa",
        -7.798163966832631
      ],
      [
        "▁durante",
        -7.800975213355411
      ],
      [
        "í",
        -7.806264870606505
      ],
      [
        "▁sempre",
        -7.814298932728549
      ],
      [
        "dos",
        -7.831510851920264
      ],
      [
        "▁meio",
        -7.838651647236873
      ],
      [
        "▁após",
        -7.84381695576414
      ],
      [
        "j",
        -7.84459053814088
      ],
      [
        "▁vai",
        -7.846066758820685
      ],
      [
        "x",
        -7.856278729791533
      ],
      [
        "▁caso",
        -7.861096765248334
      ],
      [
        "▁governo",
        -7.8613384149583005
      ],
      [
        "de",
        -7.867335564497475
      ],
      [
        "6",
        -7.884347828775987
      ],
      [
        "▁primeiro",
        -7.8878884126184605
      ],
      [
        "ão",
        -7.889546427898187
      ],
      [
        "▁todo",
        -7.89427758727701
      ],
      [
        "▁estão",
        -7.903905241393707
      ],
      [
        "▁melhor",
        -7.913386487842491
      ],
      [
        "7",
        -7.9161725592066094
      ],
      [
        "0",
        -7.918455899394692
      ],
      [
        "▁tudo",
        -7.9186742257758205
      ],
      [
        "▁presidente",
        -7.918994521376614
      ],
      [
        "▁casa",
        -7.926064850844275
      ],
      [
        "das",
        -7.926821407595536
      ],
      [
        "ação",
        -7.9341047490278065
      ],
      [
        "▁outro",
        -7.950143815721475
      ],
      [
        "▁hoje",
        -7.969454563324183
      ],
      [
        "▁paulo",
        -7.97013411929816
      ],
      [
        "▁país",
        -7.975749556828918
      ],
      [
        "▁qualquer",
        -7.97853128104474
      ],
      [
        "▁rio",
        -7.981270737669439
      ],
      [
        "▁desde",
        -7.981475698485571
      ],
      [
        "8",
        -7.9836952275236115
      ],
      [
        "▁qual",
        -7.985440429581336
      ],
      [
        "▁será",
        -7.987618385202472
      ],
      [
        "▁lei",
        -7.996679350219937
      ],
      [
        "mente",
        -7.999142440038605
      ],
      [
        "▁deve",
        -8.003468225683076
      ],
      [
        "▁primeira",
        -8.011345368199656
      ],
      [
        "▁eles",
        -8.01528876360527
      ],
      [
        "$",
        -8.01571186168761
      ],
      [
        "▁nacional",
        -8.036660667851628
      ],
      [
        "▁outras",
        -8.04816612995562
      ],
      [
        "▁alguns",
        -8.053109348044018
      ],
      [
        "▁sistema",
        -8.05683129771214
      ],
      [
        "▁meu",
        -8.057952670472131
      ],
      [
        "▁então",
        -8.06003651729055
      ],
      [
        "▁processo",
        -8.067554620738209
      ],
      [
        "▁menos",
        -8.073857529985002
      ],
      [
        "▁antes",
        -8.087038005655756
      ],
      [
        "▁três",
        -8.087595296666155
      ],
      [
        "▁feira",
        -8.092912563931089
      ],
      [
        "▁nova",
        -8.095477334893298
      ],
      [
        "▁minha",
        -8.10215063513568
      ],
      [
        "▁dias",
        -8.107611044781876
      ],
      [
        "9",
        -8.11014242654917
      ],
      [
        "º",
        -8.115065051079847
      ],
      [
        "▁pra",
        -8.125623192616453
      ],
      [
        "▁saúde",
        -8.13075929763154
      ],
      [
        "▁10",
        -8.13623391295876
      ],
      [
        "▁novo",
        -8.143808097876658
      ],
      [
        "▁grupo",
        -8.144271751720751
      ],
      [
        "▁público",
        -8.149214427871804
      ],
      [
        "▁nem",
        -8.155161657688584
      ],
      [
        "▁podem",
        -8.160490373451996
      ],
      [
        "▁final",
        -8.164772805094008
      ],
      [
        "▁duas",
        -8.167074882251473
      ],
      [
        "▁história",
        -8.167389764421454
      ],
      [
        "▁estava",
        -8.173194514007696
      ],
      [
        "▁empresa",
        -8.179177112597193
      ],
      [
        "▁acordo",
        -8.179252884233337
      ],
      [
        "▁todas",
        -8.185696983793624
      ],
      [
        "▁pelos",
        -8.185701508959914
      ],
      [
        "▁agora",
        -8.18615242840575
      ],
      [
        "▁partir",
        -8.195321938566089
      ],
      [
        "idade",
        -8.197610577002175
      ],
      [
        "▁área",
        -8.201034540338279
      ],
      [
        "▁direito",
        -8.210556666840455
      ],
      [
        "▁mil",
        -8.221639206468415
      ],
      [
        "▁social",
        -8.222408952647381
      ],
      [
        "▁projeto",
        -8.224716911638025
      ],
      [
        "▁conta",
        -8.226241815351123
      ],
      [
        "▁in",
        -8.228806625575581
      ],
      [
        "▁vezes",
        -8.231251941667324
      ],
      [
        "▁aqui",
        -8.232283665703534
      ],
      [
        "▁ver",
        -8.234915563438248
      ],
      [
        "▁ex",
        -8.236237071751642
      ],
      [
        "▁faz",
        -8.242041377429462
      ],
      [
        "▁federal",
        -8.244125634024426
      ],
      [
        "▁através",
        -8.2545629765849
      ],
      [
        "▁quanto",
        -8.25510575278226
      ],
      [
        "▁relação",
        -8.259539899852658
      ],
      [
        "▁pouco",
        -8.260711451844491
      ],
      [
        "▁nome",
        -8.266720803765665
      ],
      [
        "▁poder",
        -8.272668399127834
      ],
      [
        "▁toda",
        -8.275298206594783
      ],
      [
        "▁exemplo",
        -8.276700214828113
      ],
      [
        "▁enquanto",
        -8.279970948184014
      ],
      [
        "▁disse",
        -8.298083435438855
      ],
      [
        "…",
        -8.301425232310777
      ],
      [
        "▁20",
        -8.304853866993382
      ],
      [
        "▁tinha",
        -8.309153466395042
      ],
      [
        "▁região",
        -8.310757230761132
      ],
      [
        "▁desenvolvimento",
        -8.319016150347428
      ],
      [
        "▁deus",
        -8.330379645417686
      ],
      [
        "w",
        -8.336060746404556
      ],
      [
        "ó",
        -8.336674102951086
      ],
      [
        "▁programa",
        -8.338187997712936
      ],
      [
        "▁nossa",
        -8.33881570970682
      ],
      [
        "▁outra",
        -8.345700354719195
      ],
      [
        "▁lado",
        -8.346167722328119
      ],
      [
        "▁fim",
        -8.363691438769258
      ],
      [
        "▁sido",
        -8.368671945864573
      ],
      [
        "ações",
        -8.368738307857926
      ],
      [
        "▁momento",
        -8.376116504904708
      ],
      [
        "▁30",
        -8.387437004000006
      ],
      [
        "_",
        -8.387685740454842
      ],
      [
        "▁tanto",
        -8.395932298236218
      ],
      [
        "▁uso",
        -8.397153648783704
      ],
      [
        "▁sul",
        -8.401769743052094
      ],
      [
        "▁tipo",
        -8.405880224394094
      ],
      [
        "▁dentro",
        -8.41101519540737
      ],
      [
        "▁tão",
        -8.411546046011383
      ],
      [
        "▁neste",
        -8.421271192153073
      ],
      [
        "▁nada",
        -8.421510221402738
      ],
      [
        "▁janeiro",
        -8.425447728719925
      ],
      [
        "▁nosso",
        -8.436077565807109
      ],
      [
        "▁bom",
        -8.437041013832566
      ],
      [
        "▁educação",
        -8.43950303644082
      ],
      [
        "▁num",
        -8.452324565649493
      ],
      [
        "▁política",
        -8.453911362090674
      ],
      [
        "▁lugar",
        -8.45928027943737
      ],
      [
        "▁mercado",
        -8.46457319966656
      ],
      [
        "▁pessoa",
        -8.465927575663832
      ],
      [
        "▁água",
        -8.466581586033096
      ],
      [
        "▁sociedade",
        -8.466944010675494
      ],
      [
        "▁geral",
        -8.467353761876739
      ],
      [
        "▁deste",
        -8.47256674447799
      ],
      [
        "▁desta",
        -8.474965776637577
      ],
      [
        "▁produção",
        -8.476090834637155
      ],
      [
        "▁fato",
        -8.476758340052402
      ],
      [
        "▁valor",
        -8.481784497890374
      ],
      [
        "▁número",
        -8.482898097176486
      ],
      [
        "res",
        -8.48761482421535
      ],
      [
        "rem",
        -8.487822467920527
      ],
      [
        "▁mesma",
        -8.488048437554545
      ],
      [
        "▁algumas",
        -8.490326151526535
      ],
      [
        "▁segunda",
        -8.496038719300973
      ],
      [
        "▁local",
        -8.502173243835266
      ],
      [
        "▁fez",
        -8.50253163191142
      ],
      [
        "▁têm",
        -8.510278015235018
      ],
      [
        "▁nesta",
        -8.51221976544491
      ],
      [
        "▁importante",
        -8.512232924701607
      ],
      [
        "▁12",
        -8.514445598472381
      ],
      [
        "▁muitas",
        -8.5186600268365
      ],
      [
        "▁teve",
        -8.519261177269906
      ],
      [
        "▁lhe",
        -8.519848988273099
      ],
      [
        "▁sob",
        -8.525475665067342
      ],
      [
        "▁período",
        -8.526776313276148
      ],
      [
        "▁15",
        -8.527219766063162
      ],
      [
        "▁milhões",
        -8.540561257913854
      ],
      [
        "▁jogo",
        -8.541466077533181
      ],
      [
        "▁seria",
        -8.541841650257096
      ],
      [
        "▁the",
        -8.542134002833384
      ],
      [
        "▁estar",
        -8.542766369420555
      ],
      [
        "ria",
        -8.543255924723738
      ],
      [
        "▁possível",
        -8.546481117509336
      ],
      [
        "▁família",
        -8.546984976487712
      ],
      [
        "▁muitos",
        -8.54730689460361
      ],
      [
        "▁base",
        -8.548312833982834
      ],
      [
        "▁centro",
        -8.54874062218846
      ],
      [
        "▁filme",
        -8.551246047449746
      ],
      [
        "▁nós",
        -8.557645817772107
      ],
      [
        "▁co",
        -8.558642346012668
      ],
      [
        "▁diz",
        -8.563773708643787
      ],
      [
        "▁empresas",
        -8.571338747420631
      ],
      [
        "▁estados",
        -8.574080767771276
      ],
      [
        "ter",
        -8.579074746441455
      ],
      [
        "▁serviços",
        -8.579258915897922
      ],
      [
        "▁qualidade",
        -8.5820323397755
      ],
      [
        "▁homem",
        -8.58633844879762
      ],
      [
        "▁quase",
        -8.590256215800256
      ],
      [
        "▁brasileiro",
        -8.597179812646493
      ],
      [
        "ção",
        -8.608209336895106
      ],
      [
        "▁ponto",
        -8.612736690084626
      ],
      [
        "▁for",
        -8.617845594196165
      ],
      [
        "▁tal",
        -8.620254818768707
      ],
      [
        "▁norte",
        -8.621858250422184
      ],
      [
        "▁corpo",
        -8.624282795271087
      ],
      [
        "▁equipe",
        -8.62614674602138
      ],
      [
        "que",
        -8.626468391418705
      ],
      [
        "▁numa",
        -8.627279738062056
      ],
      [
        "▁série",
        -8.630563187231704
      ],
      [
        "▁segurança",
        -8.633536873353467
      ],
      [
        "]",
        -8.637179511418545
      ],
      [
        "[",
        -8.640762608278619
      ],
      [
        "▁informações",
        -8.64174074403524
      ],
      [
        "▁início",
        -8.643535839882437
      ],
      [
        "▁escola",
        -8.645442491269435
      ],
      [
        "▁fora",
        -8.64830837625483
      ],
      [
        "▁lá",
        -8.650654520946619
      ],
      [
        "▁livro",
        -8.654643470975097
      ],
      [
        "—",
        -8.65469055104884
      ],
      [
        "▁boa",
        -8.654829563800558
      ],
      [
        "▁cerca",
        -8.657381764933888
      ],
      [
        "▁população",
        -8.664414288854351
      ],
      [
        "▁havia",
        -8.665246480116704
      ],
      [
        "▁quatro",
        -8.665888991724216
      ],
      [
        "▁nunca",
        -8.671320082097182
      ],
      [
        "▁coisa",
        -8.674717670474939
      ],
      [
        "▁apesar",
        -8.674979606562905
      ],
      [
        "▁pesquisa",
        -8.682607939538984
      ],
      [
        "▁brasileira",
        -8.683567328414526
      ],
      [
        "ções",
        -8.683602162579469
      ],
      [
        "▁pública",
        -8.690117082033323
      ],
      [
        "▁espaço",
        -8.692404452132203
      ],
      [
        "▁semana",
        -8.701185481749443
      ],
      [
        "▁volta",
        -8.703080195504047
      ],
      [
        "▁17",
        -8.704925093849903
      ],
      [
        "▁11",
        -8.70599233904791
      ],
      [
        "▁objetivo",
        -8.707097162975112
      ],
      [
        "▁mal",
        -8.709186576339343
      ],
      [
        "▁recursos",
        -8.71353138695789
      ],
      [
        "▁terra",
        -8.715435774402295
      ],
      [
        "▁filho",
        -8.717695161484524
      ],
      [
        "▁disso",
        -8.718715874945888
      ],
      [
        "▁frente",
        -8.721376811004452
      ],
      [
        "q",
        -8.723385902942622
      ],
      [
        "▁época",
        -8.72514815738755
      ],
      [
        "▁grandes",
        -8.726491538221083
      ],
      [
        "▁serviço",
        -8.727120539317589
      ],
      [
        "▁dados",
        -8.727979474139286
      ],
      [
        "▁18",
        -8.731581947340063
      ],
      [
        "▁universidade",
        -8.734645252734742
      ],
      [
        "▁justiça",
        -8.735377157204756
      ],
      [
        "▁porém",
        -8.73619488273225
      ],
      [
        "▁josé",
        -8.736741639036133
      ],
      [
        "▁quais",
        -8.73721704486239
      ],
      [
        "ê",
        -8.737586270559278
      ],
      [
        "▁embora",
        -8.738354869049608
      ],
      [
        "▁dizer",
        -8.745038600464447
      ],
      [
        "▁próprio",
        -8.745110588135269
      ],
      [
        "▁dar",
        -8.745687403841954
      ],
      [
        "▁verdade",
        -8.746959431174698
      ],
      [
        "▁vários",
        -8.752487932921811
      ],
      [
        "▁campo",
        -8.758434394950621
      ],
      [
        "▁falta",
        -8.758803931151123
      ],
      [
        "▁feito",
        -8.764310217323374
      ],
      [
        "▁produtos",
        -8.767175136864584
      ],
      [
        "▁tendo",
        -8.7688725885524
      ],
      [
        "▁vem",
        -8.776048717655582
      ],
      [
        "um",
        -8.776791779053168
      ],
      [
        "▁algo",
        -8.779084001169295
      ],
      [
        "▁município",
        -8.779609467349006
      ],
      [
        "▁mulher",
        -8.783418083739305
      ],
      [
        "▁mulheres",
        -8.78748302203166
      ],
      [
        "▁te",
        -8.791930089183698
      ],
      [
        "▁dessa",
        -8.793532826149702
      ],
      [
        "▁principalmente",
        -8.793896127009944
      ],
      [
        "▁países",
        -8.795228235724714
      ],
      [
        "▁guerra",
        -8.797337786709054
      ],
      [
        "▁ambiente",
        -8.803150278567555
      ],
      [
        "▁obra",
        -8.80436630312319
      ],
      [
        "▁maioria",
        -8.804614694876248
      ],
      [
        "▁atividades",
        -8.808076034754581
      ],
      [
        "ª",
        -8.81080096533343
      ],
      [
        "▁meses",
        -8.813088206548109
      ],
      [
        "▁passado",
        -8.815326953839072
      ],
      [
        "▁música",
        -8.815790862027852
      ],
      [
        "▁principal",
        -8.816201414017423
      ],
      [
        "vam",
        -8.816710052467862
      ],
      [
        "▁horas",
        -8.81816450075951
      ],
      [
        "▁municipal",
        -8.819197281500522
      ],
      [
        "▁14",
        -8.819799996026356
      ],
      [
        "▁ministério",
        -8.82198877789031
      ],
      [
        "▁gente",
        -8.823523758999423
      ],
      [
        "▁rede",
        -8.823744119144163
      ],
      [
        "▁cultura",
        -8.824631251511295
      ],
      [
        "▁saber",
        -8.825917025055487
      ],
      [
        "▁pelas",
        -8.827766978948366
      ],
      [
        "▁situação",
        -8.829231411477068
      ],
      [
        "▁devido",
        -8.833134883800671
      ],
      [
        "▁problemas",
        -8.833671962728687
      ],
      [
        "▁modo",
        -8.83437419750634
      ],
      [
        "▁controle",
        -8.834775985065985
      ],
      [
        "▁sim",
        -8.837034841590258
      ],
      [
        "▁diferentes",
        -8.838430506955369
      ],
      [
        "▁nesse",
        -8.838525469379801
      ],
      [
        "▁desse",
        -8.838690152530374
      ],
      [
        "▁força",
        -8.838876779952788
      ],
      [
        "▁sociais",
        -8.84256700140759
      ],
      [
        "▁fica",
        -8.843164866162347
      ],
      [
        "▁16",
        -8.847609731789197
      ],
      [
        "▁coisas",
        -8.848383073437226
      ],
      [
        "▁pai",
        -8.849965739751822
      ],
      [
        "▁amor",
        -8.853337323562554
      ],
      [
        "nte",
        -8.853515419331117
      ],
      [
        "▁causa",
        -8.854316532366923
      ],
      [
        "▁longo",
        -8.85728279112313
      ],
      [
        "▁ensino",
        -8.863515240920545
      ],
      [
        "▁mar",
        -8.864440077113425
      ],
      [
        "▁direitos",
        -8.864937472423106
      ],
      [
        "▁problema",
        -8.86526775760882
      ],
      [
        "▁13",
        -8.867472266265345
      ],
      [
        "▁logo",
        -8.867777472916172
      ],
      [
        "▁própria",
        -8.867832579812806
      ],
      [
        "▁tenho",
        -8.871825376641755
      ],
      [
        "▁crianças",
        -8.872325065007866
      ],
      [
        "▁internacional",
        -8.873429314036548
      ],
      [
        "▁25",
        -8.87899613299407
      ],
      [
        "▁eram",
        -8.879436579814724
      ],
      [
        "▁tenha",
        -8.881837815429732
      ],
      [
        "▁apoio",
        -8.885519416316765
      ],
      [
        "▁somente",
        -8.891028593137811
      ],
      [
        "▁sentido",
        -8.893819453997429
      ],
      [
        "▁artigo",
        -8.894331964047355
      ],
      [
        "▁polícia",
        -8.89462422086401
      ],
      [
        "▁construção",
        -8.897518854556438
      ],
      [
        "▁morte",
        -8.898471052712008
      ],
      [
        "▁condições",
        -8.898926793258312
      ],
      [
        "▁igreja",
        -8.901232116080065
      ],
      [
        "▁acesso",
        -8.903616935264983
      ],
      [
        "▁isto",
        -8.904089601105532
      ],
      [
        "▁papel",
        -8.907607453038883
      ],
      [
        "▁noite",
        -8.907768902122626
      ],
      [
        "▁pontos",
        -8.911542753242655
      ],
      [
        "▁cinco",
        -8.912305051323973
      ],
      [
        "▁maneira",
        -8.917450602419201
      ],
      [
        "▁conhecimento",
        -8.917482686822439
      ],
      [
        "▁civil",
        -8.918269703014845
      ],
      [
        "▁evento",
        -8.926543753336992
      ],
      [
        "▁mundial",
        -8.93105911589482
      ],
      [
        "▁total",
        -8.932508925865257
      ],
      [
        "▁esses",
        -8.932822440892078
      ],
      [
        "ões",
        -8.932828967340516
      ],
      [
        "▁hora",
        -8.935251204077373
      ],
      [
        "▁junto",
        -8.93608204685761
      ],
      [
        "▁serão",
        -8.937661303921685
      ],
      [
        "▁algum",
        -8.941576924339516
      ],
      [
        "▁especial",
        -8.943454650492333
      ],
      [
        "▁cor",
        -8.94525548963485
      ],
      [
        "▁capital",
        -8.945284521192127
      ],
      [
        "▁ficar",
        -8.946560700721555
      ],
      [
        "▁dele",
        -8.94722104914808
      ],
      [
        "▁várias",
        -8.948533200308313
      ],
      [
        "▁presente",
        -8.948695730655656
      ],
      [
        "▁19",
        -8.948897165627208
      ],
      [
        "▁nível",
        -8.954510827744274
      ],
      [
        "▁joão",
        -8.955608498364272
      ],
      [
        "▁ficou",
        -8.958582485665715
      ],
      [
        "▁formação",
        -8.960208427175454
      ],
      [
        "▁devem",
        -8.960521535413633
      ],
      [
        "▁estudo",
        -8.961047577669216
      ],
      [
        "▁tarde",
        -8.961772819797677
      ],
      [
        "▁temos",
        -8.963128024494665
      ],
      [
        "▁povo",
        -8.967380806723668
      ],
      [
        "▁resultado",
        -8.97034963480117
      ],
      [
        "▁unidos",
        -8.971023600747742
      ],
      [
        "▁energia",
        -8.972012529005154
      ],
      [
        "▁decisão",
        -8.973101143980253
      ],
      [
        "▁dinheiro",
        -8.97428745422271
      ],
      [
        "▁vi",
        -8.979043763538932
      ],
      [
        "▁questão",
        -8.979059176036845
      ],
      [
        "▁principais",
        -8.979555882388293
      ],
      [
        "▁curso",
        -8.980322923075844
      ],
      [
        "▁gestão",
        -8.986321648048493
      ],
      [
        "▁profissional",
        -8.987065092273808
      ],
      [
        "▁50",
        -8.988570150802598
      ],
      [
        "▁br",
        -8.988945527159368
      ],
      [
        "▁site",
        -8.992838569294356
      ],
      [
        "▁con",
        -8.993924273279145
      ],
      [
        "▁homens",
        -8.99498058635942
      ],
      [
        "▁sabe",
        -8.995011957431949
      ],
      [
        "ista",
        -8.995498648974833
      ],
      [
        "▁jogos",
        -8.998296496501164
      ],
      [
        "▁demais",
        -9.00042123824621
      ],
      [
        "▁século",
        -9.00063157873449
      ],
      [
        "▁busca",
        -9.001402274314032
      ],
      [
        "▁21",
        -9.008735851637818
      ],
      [
        "▁movimento",
        -9.008756745477775
      ],
      [
        "▁novos",
        -9.009186164350847
      ],
      [
        "▁diretor",
        -9.010339668780109
      ],
      [
        "▁possui",
        -9.012271193214952
      ],
      [
        "▁passou",
        -9.015568628144
      ],
      [
        "ti",
        -9.016667209159484
      ],
      [
        "▁maria",
        -9.017124534130682
      ],
      [
        "▁real",
        -9.018550249555776
      ],
      [
        "▁pro",
        -9.01940025230257
      ],
      [
        "▁mãe",
        -9.021456276356398
      ],
      [
        "▁professor",
        -9.023508295607105
      ],
      [
        "▁defesa",
        -9.02362847408257
      ],
      [
        "▁modelo",
        -9.024593428292247
      ],
      [
        "ri",
        -9.024991296657102
      ],
      [
        "▁vista",
        -9.025352169765474
      ],
      [
        "▁mês",
        -9.026791249624734
      ],
      [
        "▁áreas",
        -9.02882649087073
      ],
      [
        "▁plano",
        -9.02902520017814
      ],
      [
        "ver",
        -9.029816223604364
      ],
      [
        "▁24",
        -9.031834308277215
      ],
      [
        "▁alunos",
        -9.033944658465352
      ],
      [
        "▁etc",
        -9.035886087660849
      ],
      [
        "▁precisa",
        -9.037523787710132
      ],
      [
        "▁obras",
        -9.03791087071647
      ],
      [
        "▁parece",
        -9.041329272991696
      ],
      [
        "ú",
        -9.04226094842917
      ],
      [
        "▁entanto",
        -9.042321676093698
      ],
      [
        "▁último",
        -9.043133769875016
      ],
      [
        "▁casos",
        -9.04566552193848
      ],
      [
        "▁atual",
        -9.046481777982644
      ],
      [
        "▁participação",
        -9.04812086390565
      ],
      [
        "▁superior",
        -9.048542173724408
      ],
      [
        "▁capacidade",
        -9.050822274176646
      ],
      [
        "▁respeito",
        -9.0536147872336
      ],
      [
        "▁linha",
        -9.056963641377893
      ],
      [
        "▁organização",
        -9.057873132441731
      ],
      [
        "▁vale",
        -9.05900850977094
      ],
      [
        "▁câmara",
        -9.05930674618279
      ],
      [
        "▁km",
        -9.062603446583022
      ],
      [
        "▁2014",
        -9.06310362939632
      ],
      [
        "▁aumento",
        -9.063661942480424
      ],
      [
        "▁clube",
        -9.064042064195128
      ],
      [
        "▁profissionais",
        -9.06557712736821
      ],
      [
        "ismo",
        -9.06691585700019
      ],
      [
        "▁fazendo",
        -9.06732619448622
      ],
      [
        "▁existe",
        -9.070013812392434
      ],
      [
        "▁essas",
        -9.074014580501611
      ],
      [
        "dor",
        -9.07525836254015
      ],
      [
        "▁estou",
        -9.075891283393693
      ],
      [
        "▁prática",
        -9.07945762743513
      ],
      [
        "▁falar",
        -9.082199541370803
      ],
      [
        "▁mim",
        -9.082492538511993
      ],
      [
        "▁santa",
        -9.083899180238149
      ],
      [
        "▁estadual",
        -9.083941877362136
      ],
      [
        "▁sucesso",
        -9.084255185736216
      ],
      [
        "▁simples",
        -9.084925793623128
      ],
      [
        "li",
        -9.085644296496776
      ],
      [
        "▁poderia",
        -9.085856867571955
      ],
      [
        "▁última",
        -9.086138250369888
      ],
      [
        "▁22",
        -9.086245723361438
      ],
      [
        "▁necessidade",
        -9.088352103449015
      ],
      [
        "▁alguma",
        -9.091024756939484
      ],
      [
        "▁economia",
        -9.09190105391301
      ],
      [
        "▁time",
        -9.092395588205717
      ],
      [
        "▁sub",
        -9.09450324697352
      ],
      [
        "▁novas",
        -9.094577783006937
      ],
      [
        "▁conselho",
        -9.09534208264665
      ],
      [
        "▁rua",
        -9.097721540621432
      ],
      [
        "▁prefeito",
        -9.099195872943817
      ],
      [
        "▁fosse",
        -9.099768453063056
      ],
      [
        "▁claro",
        -9.100624809561364
      ],
      [
        "▁partido",
        -9.101159217319626
      ],
      [
        "▁alta",
        -9.1013636598848
      ],
      [
        "▁2015",
        -9.10193091106298
      ],
      [
        "▁ordem",
        -9.1033466584292
      ],
      [
        "▁deixar",
        -9.103908414316733
      ],
      [
        "▁futebol",
        -9.104467315518894
      ],
      [
        "▁próximo",
        -9.105352438493105
      ],
      [
        "▁estrutura",
        -9.108803022948477
      ],
      [
        "▁di",
        -9.109059897220202
      ],
      [
        "▁carro",
        -9.111430165708608
      ],
      [
        "▁vão",
        -9.11367620932551
      ],
      [
        "▁presença",
        -9.114320912771108
      ],
      [
        "▁título",
        -9.114392075569697
      ],
      [
        "▁tratamento",
        -9.115741371199896
      ],
      [
        "▁00",
        -9.116933298798552
      ],
      [
        "▁elas",
        -9.11800063730314
      ],
      [
        "▁central",
        -9.119109670070294
      ],
      [
        "▁começou",
        -9.119759990508635
      ],
      [
        "▁militar",
        -9.12162627891879
      ],
      [
        "▁instituto",
        -9.12208009976318
      ],
      [
        "▁diversos",
        -9.123873425572269
      ],
      [
        "▁atenção",
        -9.125908079095288
      ],
      [
        "▁portanto",
        -9.12679354547854
      ],
      [
        "▁comunicação",
        -9.127623261346397
      ],
      [
        "▁100",
        -9.128293192224104
      ],
      [
        "▁alto",
        -9.129958453096645
      ],
      [
        "▁criação",
        -9.132447203511331
      ],
      [
        "▁nº",
        -9.133242455123876
      ],
      [
        "▁conjunto",
        -9.13405799002971
      ],
      [
        "▁necessário",
        -9.1370318872597
      ],
      [
        "dores",
        -9.13862616309844
      ],
      [
        "▁setembro",
        -9.13906575534819
      ],
      [
        "▁ministro",
        -9.139289975505282
      ],
      [
        "▁forte",
        -9.139679773201596
      ],
      [
        "▁2010",
        -9.140764195598033
      ],
      [
        "▁conforme",
        -9.1410584170679
      ],
      [
        "▁único",
        -9.142834662602914
      ],
      [
        "▁maio",
        -9.15081099295604
      ],
      [
        "▁valores",
        -9.151365065591383
      ],
      [
        "▁julho",
        -9.153094672942911
      ],
      [
        "▁super",
        -9.15384100561223
      ],
      [
        "▁função",
        -9.15545671323834
      ],
      [
        "▁serem",
        -9.15597571735353
      ],
      [
        "▁dezembro",
        -9.156104074848386
      ],
      [
        "▁cara",
        -9.157595935137964
      ],
      [
        "▁2012",
        -9.158998348453354
      ],
      [
        "▁setor",
        -9.15966664938444
      ],
      [
        "ava",
        -9.163016872103002
      ],
      [
        "▁secretaria",
        -9.163308460269745
      ],
      [
        "▁realidade",
        -9.164032307062676
      ],
      [
        "▁manter",
        -9.164220181466646
      ],
      [
        "▁texto",
        -9.16460497525614
      ],
      [
        "ita",
        -9.165232579265687
      ],
      [
        "▁diversas",
        -9.165419322331662
      ],
      [
        "▁2013",
        -9.16605217258252
      ],
      [
        "▁administração",
        -9.166425454096649
      ],
      [
        "▁autor",
        -9.166698262777317
      ],
      [
        "▁produto",
        -9.168176536769677
      ],
      [
        "▁maiores",
        -9.168636595598446
      ],
      [
        "▁bastante",
        -9.174317992509044
      ],
      [
        "▁fase",
        -9.174959214003817
      ],
      [
        "▁risco",
        -9.175301642756798
      ],
      [
        "▁atividade",
        -9.175404899327658
      ],
      [
        "▁prazo",
        -9.175894401126174
      ],
      [
        "▁outubro",
        -9.176097778157176
      ],
      [
        "ina",
        -9.17635895851478
      ],
      [
        "▁diante",
        -9.176547101713169
      ],
      [
        "▁2016",
        -9.178167044656702
      ],
      [
        "▁resultados",
        -9.178513282573547
      ],
      [
        "▁muita",
        -9.179611813890986
      ],
      [
        "▁banco",
        -9.182225340300109
      ],
      [
        "▁acima",
        -9.183750251134832
      ],
      [
        "▁agosto",
        -9.184133912565008
      ],
      [
        "▁junho",
        -9.184538955221273
      ],
      [
        "▁abril",
        -9.185256615355184
      ],
      [
        "▁40",
        -9.18716431110867
      ],
      [
        "▁informação",
        -9.188770895173622
      ],
      [
        "▁estudos",
        -9.189831361920248
      ],
      [
        "ton",
        -9.190401972629104
      ],
      [
        "▁marca",
        -9.190572026961872
      ],
      [
        "▁união",
        -9.191962708925915
      ],
      [
        "▁23",
        -9.192023213160285
      ],
      [
        "▁material",
        -9.196002207025977
      ],
      [
        "▁importância",
        -9.196485436395978
      ],
      [
        "▁crescimento",
        -9.20076972596289
      ],
      [
        "▁mão",
        -9.201449545994148
      ],
      [
        "las",
        -9.202582020956113
      ],
      [
        "▁análise",
        -9.20261960231722
      ],
      [
        "&",
        -9.202874344217976
      ],
      [
        "▁sou",
        -9.203485858184202
      ],
      [
        "▁passar",
        -9.204017016212063
      ],
      [
        "▁natureza",
        -9.20414972235368
      ],
      [
        "▁março",
        -9.204297075234653
      ],
      [
        "▁arte",
        -9.20437581644865
      ],
      [
        "▁inclusive",
        -9.205069246168335
      ],
      [
        "▁tribunal",
        -9.205593422594742
      ],
      [
        "▁poderá",
        -9.205789780939655
      ],
      [
        "mento",
        -9.206759816418714
      ],
      [
        "▁luz",
        -9.20682475892295
      ],
      [
        "▁tecnologia",
        -9.20749244061398
      ],
      [
        "▁per",
        -9.208553563586952
      ],
      [
        "▁comum",
        -9.209353293029224
      ],
      [
        "▁carlos",
        -9.211010556475893
      ],
      [
        "▁usar",
        -9.211054522367691
      ],
      [
        "▁feita",
        -9.214282917331468
      ],
      [
        "▁nenhum",
        -9.215166131757812
      ],
      [
        "▁experiência",
        -9.215588118248592
      ],
      [
        "▁média",
        -9.216475606415674
      ],
      [
        "ing",
        -9.217634102742204
      ],
      [
        "▁responsável",
        -9.218200606185947
      ],
      [
        "▁acho",
        -9.218406880259629
      ],
      [
        "▁projetos",
        -9.21973387185714
      ],
      [
        "▁preciso",
        -9.220225660437528
      ],
      [
        "▁2011",
        -9.221486800608682
      ],
      [
        "▁passa",
        -9.22211092833354
      ],
      [
        "ida",
        -9.222523624112116
      ],
      [
        "▁comunidade",
        -9.22371022419098
      ],
      [
        "▁internet",
        -9.224848004624803
      ],
      [
        "▁su",
        -9.226224277244915
      ],
      [
        "▁menor",
        -9.22736325326617
      ],
      [
        "▁nossos",
        -9.228358914861174
      ],
      [
        "▁medida",
        -9.22871510017851
      ],
      [
        "▁edição",
        -9.233001009257322
      ],
      [
        "▁data",
        -9.238866609889396
      ],
      [
        "▁luta",
        -9.23901896311491
      ],
      [
        "▁única",
        -9.242797563570573
      ],
      [
        "▁aquele",
        -9.246752031375625
      ],
      [
        "▁porto",
        -9.247010428627275
      ],
      [
        "▁conhecido",
        -9.247386851389267
      ],
      [
        "▁certo",
        -9.24777705664097
      ],
      [
        "*",
        -9.248255845027462
      ],
      [
        "▁melhores",
        -9.2483089479763
      ],
      [
        "▁alguém",
        -9.24987163906176
      ],
      [
        "▁silva",
        -9.254642395223463
      ],
      [
        "▁pessoal",
        -9.256339117251306
      ],
      [
        "▁caminho",
        -9.25763524929951
      ],
      [
        "▁criar",
        -9.258122921653383
      ],
      [
        "th",
        -9.25857932478316
      ],
      [
        "tar",
        -9.259060396732233
      ],
      [
        "▁ali",
        -9.259279634551644
      ],
      [
        "▁filhos",
        -9.262646421302613
      ],
      [
        "▁deles",
        -9.262732852302875
      ],
      [
        "▁prefeitura",
        -9.263204914366003
      ],
      [
        "▁comissão",
        -9.264047056787614
      ],
      [
        "▁ajuda",
        -9.26631522189002
      ],
      [
        "▁chegou",
        -9.266575265466034
      ],
      [
        "▁mostra",
        -9.267382652415163
      ],
      [
        "▁novembro",
        -9.271084874704032
      ],
      [
        "▁interesse",
        -9.271838595402864
      ],
      [
        "▁teria",
        -9.272369157592644
      ],
      [
        "▁realizado",
        -9.27278616304122
      ],
      [
        "▁sejam",
        -9.275758283438831
      ],
      [
        "▁tv",
        -9.277250548466217
      ],
      [
        "▁chegar",
        -9.27782013956809
      ],
      [
        "▁realmente",
        -9.280227170782355
      ],
      [
        "▁000",
        -9.280973810803788
      ],
      [
        "▁seis",
        -9.281032327631149
      ],
      [
        "▁terá",
        -9.281261581855771
      ],
      [
        "▁sol",
        -9.282480406400444
      ],
      [
        "▁campanha",
        -9.282798798011154
      ],
      [
        "▁banda",
        -9.283214547882368
      ],
      [
        "▁criança",
        -9.283392909566253
      ],
      [
        "qui",
        -9.28568651178209
      ],
      [
        "▁senhor",
        -9.285930840753588
      ],
      [
        "=",
        -9.286722700379388
      ],
      [
        "▁inter",
        -9.286862158679911
      ],
      [
        "▁posição",
        -9.287062195792988
      ],
      [
        "▁livre",
        -9.290174986698515
      ],
      [
        "vi",
        -9.292705011664337
      ],
      [
        "▁prova",
        -9.29290160994453
      ],
      [
        "▁seguinte",
        -9.29311185774178
      ],
      [
        "▁político",
        -9.295546343115738
      ],
      [
        "▁trata",
        -9.29832069917221
      ],
      [
        "▁atendimento",
        -9.306338859670143
      ],
      [
        "▁vou",
        -9.307505771221908
      ],
      [
        "▁associação",
        -9.308622106643307
      ],
      [
        "▁amigos",
        -9.308893113582808
      ],
      [
        "▁minutos",
        -9.30910608965189
      ],
      [
        "▁proposta",
        -9.309319367577809
      ],
      [
        "▁nessa",
        -9.309683689252347
      ],
      [
        "▁sei",
        -9.310039524639068
      ],
      [
        "▁oficial",
        -9.310688838237
      ],
      [
        "▁quer",
        -9.31077893888262
      ],
      [
        "responsabilidade",
        -9.31265804426807
      ],
      [
        "▁tais",
        -9.312754635509712
      ],
      [
        "▁quarta",
        -9.313752784147072
      ],
      [
        "ç",
        -9.31441711207853
      ],
      [
        "▁termos",
        -9.316336852956242
      ],
      [
        "▁talvez",
        -9.319309565452436
      ],
      [
        "▁jovens",
        -9.32386856427197
      ],
      [
        "▁tornou",
        -9.32450465792092
      ],
      [
        "▁direção",
        -9.325443639434226
      ],
      [
        "▁jesus",
        -9.325747613652329
      ],
      [
        "▁lista",
        -9.325831107587597
      ],
      [
        "▁los",
        -9.328485020562036
      ],
      [
        "▁últimos",
        -9.330474871318373
      ],
      [
        "▁fazem",
        -9.330612902114588
      ],
      [
        "▁ja",
        -9.333992648733751
      ],
      [
        "▁vitória",
        -9.334144111474972
      ],
      [
        "▁relações",
        -9.335646674589883
      ],
      [
        "▁futuro",
        -9.336053031731048
      ],
      [
        "▁fundo",
        -9.33643512943468
      ],
      [
        "▁campeonato",
        -9.337887889667188
      ],
      [
        "▁grupos",
        -9.339521787818526
      ],
      [
        "▁carreira",
        -9.339844070426253
      ],
      [
        "▁estes",
        -9.34031422378513
      ],
      [
        "▁santos",
        -9.341251157664148
      ],
      [
        "▁copa",
        -9.34201111305184
      ],
      [
        "▁américa",
        -9.342114302856714
      ],
      [
        "▁cabeça",
        -9.3435149229835
      ],
      [
        "▁estamos",
        -9.343573421406168
      ],
      [
        "▁levar",
        -9.343840017591162
      ],
      [
        "▁políticas",
        -9.345050615104698
      ],
      [
        "▁via",
        -9.346736492744387
      ],
      [
        "▁membros",
        -9.347442141692502
      ],
      [
        "▁chamado",
        -9.349769646402612
      ],
      [
        "▁imagem",
        -9.349829177740396
      ],
      [
        "▁atualmente",
        -9.354117489581464
      ],
      [
        "▁aqueles",
        -9.35439286807168
      ],
      [
        "▁estavam",
        -9.354484483684034
      ],
      [
        "▁28",
        -9.356673627582335
      ],
      [
        "▁razão",
        -9.356940264063647
      ],
      [
        "▁liberdade",
        -9.358283308152885
      ],
      [
        "▁humanos",
        -9.359471084754356
      ],
      [
        "▁2009",
        -9.361048444580025
      ],
      [
        "▁possibilidade",
        -9.362878269418246
      ],
      [
        "▁natural",
        -9.366413278966908
      ],
      [
        "▁blog",
        -9.366681830765309
      ],
      [
        "▁técnico",
        -9.366819727623303
      ],
      [
        "▁26",
        -9.36744311798685
      ],
      [
        "▁pais",
        -9.368159138208796
      ],
      [
        "▁27",
        -9.368253202270768
      ],
      [
        "▁temporada",
        -9.368657390740209
      ],
      [
        "ais",
        -9.369824814278097
      ],
      [
        "▁ideia",
        -9.37085154041904
      ],
      [
        "▁2008",
        -9.3714113253818
      ],
      [
        "▁realizada",
        -9.371823570183231
      ],
      [
        "▁dela",
        -9.373656819520653
      ],
      [
        "▁diferente",
        -9.374259910917496
      ],
      [
        "▁interior",
        -9.374948080421982
      ],
      [
        "▁deputado",
        -9.376215668691932
      ],
      [
        "▁pagamento",
        -9.380417513364986
      ],
      [
        "▁vontade",
        -9.386274254369589
      ],
      [
        "rá",
        -9.38663240951186
      ],
      [
        "▁década",
        -9.388246845019268
      ],
      [
        "▁unidade",
        -9.390068180216758
      ],
      [
        "▁governador",
        -9.39013585018236
      ],
      [
        "▁origem",
        -9.395239069338531
      ],
      [
        "▁trabalhadores",
        -9.395647189681052
      ],
      [
        "ã",
        -9.396453418427615
      ],
      [
        "ido",
        -9.39756373526935
      ],
      [
        "▁incluindo",
        -9.401577646993356
      ],
      [
        "▁recebeu",
        -9.40230606232148
      ],
      [
        "▁república",
        -9.406793417143223
      ],
      [
        "▁baixo",
        -9.407819061275545
      ],
      [
        "�",
        -9.410010126191064
      ],
      [
        "▁contrato",
        -9.411086218613889
      ],
      [
        "inha",
        -9.411809400715365
      ],
      [
        "▁técnica",
        -9.413086668524002
      ],
      [
        "▁existem",
        -9.41450785307479
      ],
      [
        "per",
        -9.415034705919524
      ],
      [
        "▁afirmou",
        -9.417718795623909
      ],
      [
        "▁ninguém",
        -9.420692020306353
      ],
      [
        "▁podemos",
        -9.420713389149444
      ],
      [
        "▁efeito",
        -9.422656810073136
      ],
      [
        "▁60",
        -9.42371763408087
      ],
      [
        "▁fala",
        -9.423887237626952
      ],
      [
        "▁pena",
        -9.424770949474532
      ],
      [
        "▁sede",
        -9.42558250001121
      ],
      [
        "▁manhã",
        -9.426575726154704
      ],
      [
        "▁vice",
        -9.426729979310055
      ],
      [
        "ização",
        -9.4272178272055
      ],
      [
        "▁jovem",
        -9.42754272871215
      ],
      [
        "▁animais",
        -9.429197126659425
      ],
      [
        "▁versão",
        -9.43155501536645
      ],
      [
        "▁crise",
        -9.433361853682008
      ],
      [
        "▁quinta",
        -9.433446145966649
      ],
      [
        "▁realizar",
        -9.433824839418408
      ],
      [
        "▁29",
        -9.43411392840739
      ],
      [
        "▁jornal",
        -9.434693552556489
      ],
      [
        "▁quantidade",
        -9.435312730720504
      ],
      [
        "▁afirma",
        -9.43628292959776
      ],
      [
        "▁médio",
        -9.436990702851068
      ],
      [
        "▁cidades",
        -9.437377115853849
      ],
      [
        "▁receber",
        -9.43747211579024
      ],
      [
        "▁contato",
        -9.439072883594008
      ],
      [
        "▁trabalhar",
        -9.439175746474818
      ],
      [
        "tur",
        -9.44089860337391
      ],
      [
        "▁palavras",
        -9.44134419279002
      ],
      [
        "▁possa",
        -9.441646532755694
      ],
      [
        "▁locais",
        -9.443858953245998
      ],
      [
        "▁encontro",
        -9.444040553213368
      ],
      [
        "▁sexta",
        -9.44408883433193
      ],
      [
        "▁fevereiro",
        -9.445086088800894
      ],
      [
        "▁encontrar",
        -9.44768229165163
      ],
      [
        "▁contrário",
        -9.450897872572812
      ],
      [
        "▁professores",
        -9.451187996638437
      ],
      [
        "▁espírito",
        -9.454374275601884
      ],
      [
        "▁cultural",
        -9.45762744688922
      ],
      [
        "▁estilo",
        -9.457970721650955
      ],
      [
        "mar",
        -9.46018048906295
      ],
      [
        "▁bairro",
        -9.462406078018352
      ],
      [
        "ch",
        -9.463360006512367
      ],
      [
        "▁coração",
        -9.46342902393127
      ],
      [
        "▁realização",
        -9.463909561139388
      ],
      [
        "▁auto",
        -9.4657582812923
      ],
      [
        "▁palavra",
        -9.46886312317365
      ],
      [
        "▁ajudar",
        -9.46909423407494
      ],
      [
        "▁sala",
        -9.469510739507763
      ],
      [
        "▁ba",
        -9.470099291195618
      ],
      [
        "▁portugal",
        -9.470737886690792
      ],
      [
        "▁especialmente",
        -9.472290447549986
      ],
      [
        "▁santo",
        -9.473708925302311
      ],
      [
        "▁pré",
        -9.473958299006409
      ],
      [
        "▁apresenta",
        -9.474179329781142
      ],
      [
        "▁anti",
        -9.476388987394696
      ],
      [
        "▁operação",
        -9.477468639416696
      ],
      [
        "▁difícil",
        -9.47955361360027
      ],
      [
        "car",
        -9.480128829881478
      ],
      [
        "▁importantes",
        -9.482585265108447
      ],
      [
        "▁classe",
        -9.483600461771216
      ],
      [
        "▁pedro",
        -9.48546710037242
      ],
      [
        "▁públicos",
        -9.485897098603058
      ],
      [
        "fer",
        -9.487687293638352
      ],
      [
        "ntes",
        -9.487730086018152
      ],
      [
        "▁ato",
        -9.488070589079989
      ],
      [
        "▁bo",
        -9.489943705727647
      ],
      [
        "▁revista",
        -9.490829453241886
      ],
      [
        "▁secretário",
        -9.49199171996028
      ],
      [
        "▁31",
        -9.49212339164289
      ],
      [
        "▁humano",
        -9.492899616979454
      ],
      [
        "▁consumo",
        -9.494158763952758
      ],
      [
        "▁processos",
        -9.494631718667035
      ],
      [
        "▁houve",
        -9.495845545650518
      ],
      [
        "con",
        -9.498306298886291
      ],
      [
        "▁avaliação",
        -9.502108623947288
      ],
      [
        "▁médico",
        -9.502321029273345
      ],
      [
        "▁doença",
        -9.502438083215546
      ],
      [
        "▁física",
        -9.502630737239988
      ],
      [
        "▁cargo",
        -9.50332254768945
      ],
      [
        "▁colocar",
        -9.503499321759584
      ],
      [
        "▁anterior",
        -9.50351141877545
      ],
      [
        "▁europa",
        -9.50498236032442
      ],
      [
        "inho",
        -9.508507419150284
      ],
      [
        "▁vamos",
        -9.509264804490526
      ],
      [
        "▁peso",
        -9.510755762883768
      ],
      [
        "▁bar",
        -9.510887801121015
      ],
      [
        "▁assunto",
        -9.511049810284977
      ],
      [
        "▁preço",
        -9.511060301635466
      ],
      [
        "▁custo",
        -9.512721410601026
      ],
      [
        "▁álbum",
        -9.51282845196828
      ],
      [
        "▁companhia",
        -9.513550071960832
      ],
      [
        "▁fundamental",
        -9.513708584120764
      ],
      [
        "▁pedido",
        -9.515906509492774
      ],
      [
        "▁americano",
        -9.516494058435123
      ],
      [
        "▁cinema",
        -9.51779996987874
      ],
      [
        "▁oportunidade",
        -9.51832819188012
      ],
      [
        "▁mudança",
        -9.519292712241532
      ],
      [
        "▁espécie",
        -9.520901940365928
      ],
      [
        "▁desses",
        -9.52111198654432
      ],
      [
        "▁departamento",
        -9.521478659203655
      ],
      [
        "▁costa",
        -9.521709800741966
      ],
      [
        "▁popular",
        -9.521952559079793
      ],
      [
        "▁livros",
        -9.522191712857554
      ],
      [
        "▁questões",
        -9.523368257342367
      ],
      [
        "▁visão",
        -9.523376895562764
      ],
      [
        "▁categoria",
        -9.523717680149796
      ],
      [
        "▁lançado",
        -9.526106952738642
      ],
      [
        "▁brasileiros",
        -9.527355907534169
      ],
      [
        "▁abaixo",
        -9.530382242358472
      ],
      [
        "▁2007",
        -9.531507681124191
      ],
      [
        "▁entrada",
        -9.532129237933187
      ],
      [
        "▁primeiros",
        -9.532738472324583
      ],
      [
        "▁transporte",
        -9.53281488299748
      ],
      [
        "▁art",
        -9.534038428678205
      ],
      [
        "▁compra",
        -9.537762885248638
      ],
      [
        "▁hospital",
        -9.53856351811906
      ],
      [
        "▁atrás",
        -9.539341315925686
      ],
      [
        "amento",
        -9.539430320780411
      ],
      [
        "▁significa",
        -9.5412415913162
      ],
      [
        "▁visto",
        -9.541728204755332
      ],
      [
        "▁permite",
        -9.541817371256975
      ],
      [
        "▁instituições",
        -9.542121020000192
      ],
      [
        "▁olhos",
        -9.54265073691529
      ],
      [
        "▁evitar",
        -9.545283019321849
      ],
      [
        "▁pa",
        -9.548974617379034
      ],
      [
        "▁sete",
        -9.549932096857152
      ],
      [
        "ável",
        -9.550823203394549
      ],
      [
        "dia",
        -9.551610627608625
      ],
      [
        "▁vc",
        -9.552357243696136
      ],
      [
        "▁crime",
        -9.553489407000784
      ],
      [
        "▁nota",
        -9.554746963577614
      ],
      [
        "▁acontece",
        -9.555713439773688
      ],
      [
        "▁redução",
        -9.55675680438763
      ],
      [
        "▁ca",
        -9.55678438379032
      ],
      [
        "▁terceiro",
        -9.556894616973253
      ],
      [
        "▁conteúdo",
        -9.557287244956278
      ],
      [
        "▁rei",
        -9.558578501485922
      ],
      [
        "▁parceria",
        -9.5591294635695
      ],
      [
        "▁escolas",
        -9.559690929134751
      ],
      [
        "▁entrar",
        -9.561671456898258
      ],
      [
        "▁encontra",
        -9.561852694362257
      ],
      [
        "ante",
        -9.563082561527471
      ],
      [
        "▁sair",
        -9.563654538510963
      ],
      [
        "▁gol",
        -9.565412209952653
      ],
      [
        "▁aquela",
        -9.566317943351509
      ],
      [
        "▁favor",
        -9.567110478779938
      ],
      [
        "▁fácil",
        -9.568057438471389
      ],
      [
        "▁nenhuma",
        -9.56894154267414
      ],
      [
        "▁domingo",
        -9.568984337412784
      ],
      [
        "▁be",
        -9.569945651973216
      ],
      [
        "istas",
        -9.572600991288343
      ],
      [
        "▁indústria",
        -9.57284221820456
      ],
      [
        "▁regional",
        -9.57371494473955
      ],
      [
        "▁amigo",
        -9.574089761440431
      ],
      [
        "▁ciência",
        -9.574506494222186
      ],
      [
        "▁públicas",
        -9.574565117319318
      ],
      [
        "▁existência",
        -9.575235899056606
      ],
      [
        "▁elementos",
        -9.57875289097248
      ],
      [
        "▁deverá",
        -9.579533808090664
      ],
      [
        "▁legal",
        -9.582088777336429
      ],
      [
        "▁torna",
        -9.582291359856365
      ],
      [
        "▁mãos",
        -9.582348431733491
      ],
      [
        "▁dilma",
        -9.58357922105033
      ],
      [
        "▁som",
        -9.583878481923806
      ],
      [
        "ssem",
        -9.58414654012986
      ],
      [
        "xi",
        -9.58484262352964
      ],
      [
        "▁zona",
        -9.58497466435877
      ],
      [
        "▁matéria",
        -9.585172725398312
      ],
      [
        "▁econômica",
        -9.586458846359694
      ],
      [
        "▁novamente",
        -9.587146693385783
      ],
      [
        "▁certeza",
        -9.58782587804079
      ],
      [
        "▁meus",
        -9.588166197008508
      ],
      [
        "▁trans",
        -9.589450514253684
      ],
      [
        "▁constituição",
        -9.5899438882312
      ],
      [
        "▁eventos",
        -9.590298385827806
      ],
      [
        "▁seleção",
        -9.590360778580116
      ],
      [
        "▁clientes",
        -9.590860337310804
      ],
      [
        "▁deveria",
        -9.591034047184008
      ],
      [
        "▁sábado",
        -9.591255816208747
      ],
      [
        "tas",
        -9.591511096339207
      ],
      [
        "▁tornar",
        -9.594277059272692
      ],
      [
        "▁violência",
        -9.595266464954252
      ],
      [
        "▁candidato",
        -9.596776856059607
      ],
      [
        "▁porta",
        -9.597219798041928
      ],
      [
        "▁perto",
        -9.598226288821008
      ],
      [
        "▁reais",
        -9.598268411811308
      ],
      [
        "▁garantir",
        -9.59888250121141
      ],
      [
        "▁proteção",
        -9.599908149978376
      ],
      [
        "▁diferença",
        -9.602493815406309
      ],
      [
        "▁jogador",
        -9.60271226778795
      ],
      [
        "▁festa",
        -9.603286549344872
      ],
      [
        "▁luiz",
        -9.603943334059965
      ],
      [
        "▁renda",
        -9.606250937872176
      ],
      [
        "▁conseguiu",
        -9.6063497855817
      ],
      [
        "▁medidas",
        -9.607041445683173
      ],
      [
        "▁cima",
        -9.60706588360184
      ],
      [
        "▁taxa",
        -9.60760274105314
      ],
      [
        "▁resposta",
        -9.607891629700433
      ],
      [
        "▁características",
        -9.6081507436527
      ],
      [
        "fi",
        -9.608231806694134
      ],
      [
        "▁80",
        -9.609892377921726
      ],
      [
        "▁programas",
        -9.61012181971125
      ],
      [
        "▁código",
        -9.61172749635742
      ],
      [
        "▁2006",
        -9.61239324423943
      ],
      [
        "▁entender",
        -9.612600151835874
      ],
      [
        "▁tomar",
        -9.616832772976382
      ],
      [
        "▁minas",
        -9.617255598336744
      ],
      [
        "▁partida",
        -9.61758796661742
      ],
      [
        "▁ambiental",
        -9.620299103107277
      ],
      [
        "ente",
        -9.620587767292696
      ],
      [
        "▁ambos",
        -9.62063334118788
      ],
      [
        "▁desempenho",
        -9.621366577198115
      ],
      [
        "▁pensar",
        -9.625382384626707
      ],
      [
        "▁conhecer",
        -9.625864870985412
      ],
      [
        "▁pequeno",
        -9.626628123518255
      ],
      [
        "▁ocorre",
        -9.627444697102128
      ],
      [
        "▁regime",
        -9.629688551089524
      ],
      [
        "▁cruz",
        -9.630558375612583
      ],
      [
        "­",
        -9.631054307534471
      ],
      [
        "▁mudanças",
        -9.632463850728955
      ],
      [
        "+",
        -9.63276712557326
      ],
      [
        "▁pós",
        -9.633032412679167
      ],
      [
        "▁reunião",
        -9.63319633693944
      ],
      [
        "par",
        -9.634195185078196
      ],
      [
        "▁imprensa",
        -9.634766182883098
      ],
      [
        "▁instituição",
        -9.635197961182998
      ],
      [
        "▁seguida",
        -9.636183215370488
      ],
      [
        "▁pele",
        -9.636220012841347
      ],
      [
        "▁contas",
        -9.636572038966044
      ],
      [
        "•",
        -9.63819190637125
      ],
      [
        "▁termo",
        -9.63881631611521
      ],
      [
        "▁efeitos",
        -9.639042210819945
      ],
      [
        "▁aplicação",
        -9.63957809436417
      ],
      [
        "▁massa",
        -9.640608243082006
      ],
      [
        "▁deixou",
        -9.640834732381167
      ],
      [
        "▁começa",
        -9.64150080595648
      ],
      [
        "▁próxima",
        -9.64166089275624
      ],
      [
        "▁imagens",
        -9.64736942832356
      ],
      [
        "▁fonte",
        -9.647791185022832
      ],
      [
        "▁municípios",
        -9.648734525791824
      ],
      [
        "▁fé",
        -9.649123252255176
      ],
      [
        "▁chamada",
        -9.64980926445824
      ],
      [
        "tá",
        -9.650834159791922
      ],
      [
        "▁cristo",
        -9.651222384647635
      ],
      [
        "▁filmes",
        -9.65134396875284
      ],
      [
        "▁90",
        -9.651992530988508
      ],
      [
        "▁francisco",
        -9.6521709105599
      ],
      [
        "▁unidades",
        -9.652274906943685
      ],
      [
        "▁pi",
        -9.653527799103736
      ],
      [
        "▁ontem",
        -9.654075601529996
      ],
      [
        "▁baixa",
        -9.654119087888423
      ],
      [
        "▁bilhões",
        -9.654254626035604
      ],
      [
        "▁forças",
        -9.654581145830695
      ],
      [
        "▁políticos",
        -9.657641716659043
      ],
      [
        "▁deixa",
        -9.657910823390612
      ],
      [
        "ô",
        -9.658099829812633
      ],
      [
        "▁pacientes",
        -9.658981698326713
      ],
      [
        "▁irá",
        -9.66055101057331
      ],
      [
        "qu",
        -9.662397182050237
      ],
      [
        "▁metros",
        -9.66291599107713
      ],
      [
        "▁considerado",
        -9.663243585639991
      ],
      [
        "▁apresentar",
        -9.663492934353693
      ],
      [
        "▁capaz",
        -9.66352969671102
      ],
      [
        "▁70",
        -9.664330512646194
      ],
      [
        "▁explica",
        -9.664811469086333
      ],
      [
        "▁escolha",
        -9.665114996695149
      ],
      [
        "▁viver",
        -9.666806257508515
      ],
      [
        "cia",
        -9.666990179281088
      ],
      [
        "▁and",
        -9.667817027869336
      ],
      [
        "▁língua",
        -9.668247909977278
      ],
      [
        "▁personagem",
        -9.66906713790231
      ],
      [
        "izar",
        -9.670060740692636
      ],
      [
        "▁par",
        -9.670128466692502
      ],
      [
        "▁pr",
        -9.670333097196346
      ],
      [
        "▁seguir",
        -9.670336894852891
      ],
      [
        "▁venda",
        -9.670356369495638
      ],
      [
        "▁sal",
        -9.67038845208834
      ],
      [
        "▁voz",
        -9.674856011148911
      ],
      [
        "▁humana",
        -9.674947166096576
      ],
      [
        "▁uns",
        -9.675349293382162
      ],
      [
        "ten",
        -9.67587264075508
      ],
      [
        "▁man",
        -9.676923429876265
      ],
      [
        "▁sistemas",
        -9.677048561215685
      ],
      [
        "▁altura",
        -9.677302777825906
      ],
      [
        "▁po",
        -9.677475977235778
      ],
      [
        "▁pagar",
        -9.67829725572709
      ],
      [
        "▁liga",
        -9.67955531537482
      ],
      [
        "▁filha",
        -9.67992145767811
      ],
      [
        "▁combate",
        -9.68107591926933
      ],
      [
        "▁exercício",
        -9.681187035612863
      ],
      [
        "▁pequena",
        -9.682074177464274
      ],
      [
        "▁vila",
        -9.6852296491568
      ],
      [
        "▁chefe",
        -9.685904745217435
      ],
      [
        "▁leitura",
        -9.685966518759692
      ],
      [
        "▁tentar",
        -9.68629899901996
      ],
      [
        "▁gerais",
        -9.68660773361406
      ],
      [
        "▁materiais",
        -9.687304907975944
      ],
      [
        "▁medo",
        -9.687357359376836
      ],
      [
        "▁car",
        -9.689553104657287
      ],
      [
        "▁juiz",
        -9.689894564820836
      ],
      [
        "▁congresso",
        -9.690463555835391
      ],
      [
        "▁entrevista",
        -9.690808577797691
      ],
      [
        "▁nossas",
        -9.69165070501198
      ],
      [
        "▁participar",
        -9.691861081220264
      ],
      [
        "▁lula",
        -9.693452532347852
      ],
      [
        "▁distrito",
        -9.694399581809773
      ],
      [
        "▁paulista",
        -9.69441681928196
      ],
      [
        "▁mínimo",
        -9.6949851620335
      ],
      [
        "▁leva",
        -9.696047647574654
      ],
      [
        "▁jogadores",
        -9.696381358518456
      ],
      [
        "▁reino",
        -9.696666516202004
      ],
      [
        "▁atuação",
        -9.69876456879735
      ],
      [
        "uma",
        -9.699714468774618
      ],
      [
        "▁lançamento",
        -9.699944035727896
      ],
      [
        "▁abertura",
        -9.70005757251252
      ],
      [
        "ck",
        -9.701027317202186
      ],
      [
        "▁formas",
        -9.701130323192906
      ],
      [
        "▁geralmente",
        -9.701171432802706
      ],
      [
        "▁eleitoral",
        -9.704659143497734
      ],
      [
        "▁manutenção",
        -9.706616369092464
      ],
      [
        "▁frança",
        -9.706652329922557
      ],
      [
        "▁referência",
        -9.706683432442016
      ],
      [
        "▁original",
        -9.707810375244836
      ],
      [
        "▁tinham",
        -9.7082884978189
      ],
      [
        "ler",
        -9.709202713984428
      ],
      [
        "▁partes",
        -9.709319977862412
      ],
      [
        "▁conseguir",
        -9.710454984082672
      ],
      [
        "▁terça",
        -9.713737214058046
      ],
      [
        "▁troca",
        -9.714530391435371
      ],
      [
        "▁pre",
        -9.71460227598364
      ],
      [
        "▁fui",
        -9.714990617284192
      ],
      [
        "▁gosto",
        -9.715219900771208
      ],
      [
        "▁ouro",
        -9.715480391249605
      ],
      [
        "▁americana",
        -9.715606799777053
      ],
      [
        "▁estas",
        -9.716020707496575
      ],
      [
        "▁branco",
        -9.716202279278749
      ],
      [
        "ber",
        -9.717205722795732
      ],
      [
        "▁aconteceu",
        -9.717594251377625
      ],
      [
        "bra",
        -9.719573103410095
      ],
      [
        "▁opinião",
        -9.719802180854762
      ],
      [
        "▁econômico",
        -9.72019183743462
      ],
      [
        "▁cursos",
        -9.720385926071929
      ],
      [
        "▁vídeo",
        -9.721209577540805
      ],
      [
        "▁acabou",
        -9.72142129338616
      ],
      [
        "ry",
        -9.722461474719138
      ],
      [
        "▁trabalhos",
        -9.722974483300252
      ],
      [
        "les",
        -9.723733013614616
      ],
      [
        "▁2005",
        -9.726005539356509
      ],
      [
        "▁corte",
        -9.72778006802557
      ],
      [
        "▁comando",
        -9.728908890013509
      ],
      [
        "bi",
        -9.729490747012315
      ],
      [
        "▁figura",
        -9.730548872310196
      ],
      [
        "▁líder",
        -9.73055705615058
      ],
      [
        "▁princípio",
        -9.731272299806417
      ],
      [
        "▁paz",
        -9.73166920729043
      ],
      [
        "▁geração",
        -9.734223377303511
      ],
      [
        "▁funcionários",
        -9.734264523550628
      ],
      [
        "▁usado",
        -9.735902915841953
      ],
      [
        "▁alimentos",
        -9.736748731174435
      ],
      [
        "▁conceito",
        -9.73679888648902
      ],
      [
        "▁foto",
        -9.736838734272515
      ],
      [
        "▁motivo",
        -9.737305416010084
      ],
      [
        "▁mostrar",
        -9.737860615372965
      ],
      [
        "▁reforma",
        -9.74174293336746
      ],
      [
        "▁poucos",
        -9.742287176781629
      ],
      [
        "▁solução",
        -9.742330755204549
      ],
      [
        "▁comprar",
        -9.742506036264034
      ],
      [
        "▁oito",
        -9.74498505706794
      ],
      [
        "▁caixa",
        -9.745750015408325
      ],
      [
        "▁conhecida",
        -9.748889568673972
      ],
      [
        "gem",
        -9.74968113778843
      ],
      [
        "▁histórico",
        -9.750148716529106
      ],
      [
        "▁velocidade",
        -9.75132255301346
      ],
      [
        "▁fi",
        -9.75172396047829
      ],
      [
        "▁estudantes",
        -9.752461389880349
      ],
      [
        "▁comércio",
        -9.752829148318929
      ],
      [
        "▁registro",
        -9.75320916566752
      ],
      [
        "▁contexto",
        -9.753430734072408
      ],
      [
        "▁tema",
        -9.756112326047113
      ],
      [
        "▁entrega",
        -9.75658435885071
      ],
      [
        "▁pé",
        -9.756790499810185
      ],
      [
        "▁personagens",
        -9.756817519267646
      ],
      [
        "▁2000",
        -9.757934565875129
      ],
      [
        "▁veio",
        -9.758008935728054
      ],
      [
        "▁regiões",
        -9.759746761629003
      ],
      [
        "▁viagem",
        -9.761271152303172
      ],
      [
        "▁tamanho",
        -9.76175616974041
      ],
      [
        "▁entretanto",
        -9.762876692431496
      ],
      [
        "▁quero",
        -9.762933273144514
      ],
      [
        "▁teoria",
        -9.763796246531037
      ],
      [
        "▁opção",
        -9.763864993613762
      ],
      [
        "▁guarda",
        -9.76426987473272
      ],
      [
        "▁emprego",
        -9.764784767040322
      ],
      [
        "▁teatro",
        -9.765296373723988
      ],
      [
        "▁execução",
        -9.76534994264245
      ],
      [
        "rio",
        -9.766544083156043
      ],
      [
        "▁passo",
        -9.766759038474213
      ],
      [
        "▁casamento",
        -9.769019001157949
      ],
      [
        "▁fundação",
        -9.769341710883571
      ],
      [
        "▁motor",
        -9.770066819039457
      ],
      [
        "▁quarto",
        -9.770275061552477
      ],
      [
        "▁bola",
        -9.77127113439188
      ],
      [
        "▁inglês",
        -9.772936633380043
      ],
      [
        "▁planejamento",
        -9.773011610047902
      ],
      [
        "▁executivo",
        -9.773215096611253
      ],
      [
        "▁diretamente",
        -9.773271087739095
      ],
      [
        "▁show",
        -9.77569750914596
      ],
      [
        "▁negócios",
        -9.775844420468838
      ],
      [
        "▁certa",
        -9.77600987425772
      ],
      [
        "▁agência",
        -9.776150663546092
      ],
      [
        "▁exército",
        -9.776274611931107
      ],
      [
        "▁totalmente",
        -9.776490905373462
      ],
      [
        "eira",
        -9.77708057818756
      ],
      [
        "▁comercial",
        -9.777214806481782
      ],
      [
        "▁utilização",
        -9.777788495801897
      ],
      [
        "▁chega",
        -9.778021571701096
      ],
      [
        "▁equipamentos",
        -9.778808899528402
      ],
      [
        "tivo",
        -9.779014237252516
      ],
      [
        "▁prêmio",
        -9.78002165583328
      ],
      [
        "▁bi",
        -9.783130005406866
      ],
      [
        "▁fernando",
        -9.783547360485295
      ],
      [
        "▁objeto",
        -9.783904452348214
      ],
      [
        "▁simplesmente",
        -9.78479774373537
      ],
      [
        "▁criado",
        -9.785709681476256
      ],
      [
        "▁cuja",
        -9.788255221849516
      ],
      [
        "▁tom",
        -9.789534109456389
      ],
      [
        "▁dado",
        -9.789997335234494
      ],
      [
        "▁campos",
        -9.79140013985225
      ],
      [
        "▁quadro",
        -9.793675701373036
      ],
      [
        "▁dez",
        -9.79400840507487
      ],
      [
        "▁português",
        -9.795172006307292
      ],
      [
        "▁apresentação",
        -9.796215939379897
      ],
      [
        "▁solo",
        -9.796633653257938
      ],
      [
        "com",
        -9.79694697394743
      ],
      [
        "▁natal",
        -9.797324809475397
      ],
      [
        "▁máximo",
        -9.797711807982232
      ],
      [
        "²",
        -9.797909726939649
      ],
      [
        "▁tempos",
        -9.797956660536254
      ],
      [
        "▁comportamento",
        -9.798032760225704
      ],
      [
        "▁brasília",
        -9.798229616561487
      ],
      [
        "»",
        -9.798427694588408
      ],
      [
        "▁levou",
        -9.799067061570648
      ],
      [
        "▁situações",
        -9.80113479583278
      ],
      [
        "cio",
        -9.802078968955266
      ],
      [
        "ira",
        -9.802868888510355
      ],
      [
        "▁esquerda",
        -9.803310793519058
      ],
      [
        "▁traz",
        -9.803762730382386
      ],
      [
        "▁vê",
        -9.803938962481348
      ],
      [
        "▁cliente",
        -9.804042192464747
      ],
      [
        "▁tipos",
        -9.804427055539666
      ],
      [
        "▁pressão",
        -9.805568459669358
      ],
      [
        "▁parque",
        -9.80678499921745
      ],
      [
        "▁2004",
        -9.80682746619335
      ],
      [
        "▁perder",
        -9.807367046104469
      ],
      [
        "▁condição",
        -9.808511772955551
      ],
      [
        "▁disco",
        -9.808743321665911
      ],
      [
        "▁sangue",
        -9.809468432997598
      ],
      [
        "▁começar",
        -9.811471563333276
      ],
      [
        "▁dessas",
        -9.811490572083358
      ],
      [
        "▁torno",
        -9.812187306114266
      ],
      [
        "▁queria",
        -9.81421606051758
      ],
      [
        "▁fu",
        -9.81667872769895
      ],
      [
        "▁veículos",
        -9.81968029091908
      ],
      [
        "▁cujo",
        -9.81991869197233
      ],
      [
        "▁ka",
        -9.82158452460546
      ],
      [
        "▁mudar",
        -9.822165081691
      ],
      [
        "▁presentes",
        -9.823336299129986
      ],
      [
        "▁contar",
        -9.823498060625475
      ],
      [
        "▁peças",
        -9.825024989846154
      ],
      [
        "▁serra",
        -9.827254124254807
      ],
      [
        "▁documentos",
        -9.82795977811586
      ],
      [
        "lin",
        -9.828258419604202
      ],
      [
        "▁eleições",
        -9.828532382478524
      ],
      [
        "▁antigo",
        -9.829944665273432
      ],
      [
        "▁igual",
        -9.82998293809063
      ],
      [
        "▁verde",
        -9.831611855916352
      ],
      [
        "▁crédito",
        -9.832061598933398
      ],
      [
        "▁acaba",
        -9.832886953988798
      ],
      [
        "▁pior",
        -9.833087596758542
      ],
      [
        "▁redes",
        -9.834225023357696
      ],
      [
        "gar",
        -9.834918699513851
      ],
      [
        "izado",
        -9.835030705644206
      ],
      [
        "▁perda",
        -9.835241468367265
      ],
      [
        "▁destaque",
        -9.83577664246803
      ],
      [
        "▁dando",
        -9.835795351249784
      ],
      [
        "▁sexo",
        -9.836055998584094
      ],
      [
        "▁rádio",
        -9.83646485740644
      ],
      [
        "▁preços",
        -9.838495909121676
      ],
      [
        "▁órgãos",
        -9.839217237495948
      ],
      [
        "▁continua",
        -9.840052245174348
      ],
      [
        "▁35",
        -9.8406187050352
      ],
      [
        "tra",
        -9.841676796675635
      ],
      [
        "▁habitantes",
        -9.841775778383122
      ],
      [
        "▁disputa",
        -9.841878545087646
      ],
      [
        "▁terceira",
        -9.844376118696609
      ],
      [
        "▁voltar",
        -9.844572106695155
      ],
      [
        "▁fotos",
        -9.844838496112024
      ],
      [
        "▁volume",
        -9.84672792551788
      ],
      [
        "ven",
        -9.848404094787597
      ],
      [
        "▁completa",
        -9.848607251784916
      ],
      [
        "▁divisão",
        -9.849104222977424
      ],
      [
        "▁tiveram",
        -9.849916299756588
      ],
      [
        "▁aumentar",
        -9.850086920278663
      ],
      [
        "min",
        -9.850867071750567
      ],
      [
        "▁usando",
        -9.851243396844035
      ],
      [
        "▁longe",
        -9.85212425300671
      ],
      [
        "▁pesquisas",
        -9.852171214374687
      ],
      [
        "▁padrão",
        -9.852228633360138
      ],
      [
        "▁bens",
        -9.852434729664369
      ],
      [
        "▁militares",
        -9.85272390825516
      ],
      [
        "▁aspectos",
        -9.852850408675216
      ],
      [
        "▁servidores",
        -9.85338714547965
      ],
      [
        "▁vivo",
        -9.85381351388158
      ],
      [
        "▁olhar",
        -9.854993878123222
      ],
      [
        "▁competição",
        -9.855194990453745
      ],
      [
        "▁fatores",
        -9.855379853190712
      ],
      [
        "▁li",
        -9.85649007550366
      ],
      [
        "▁queda",
        -9.856988267249534
      ],
      [
        "▁famílias",
        -9.85740429641041
      ],
      [
        "▁momentos",
        -9.858572586515374
      ],
      [
        "▁post",
        -9.85891045707245
      ],
      [
        "▁500",
        -9.859386665827795
      ],
      [
        "▁tenham",
        -9.85994844956209
      ],
      [
        "▁regras",
        -9.860675696871672
      ],
      [
        "▁território",
        -9.8612404384915
      ],
      [
        "▁faculdade",
        -9.863961955066303
      ],
      [
        "▁canal",
        -9.864545321071098
      ],
      [
        "ador",
        -9.864734977389269
      ],
      [
        "ite",
        -9.86549379021506
      ],
      [
        "▁técnicas",
        -9.86551757724403
      ],
      [
        "▁documento",
        -9.865920786102636
      ],
      [
        "▁mesa",
        -9.86631210507319
      ],
      [
        "▁cenário",
        -9.867118798581828
      ],
      [
        "▁assistência",
        -9.867127668845168
      ],
      [
        "▁atender",
        -9.867206893393538
      ],
      [
        "▁órgão",
        -9.868065172826736
      ],
      [
        "▁distância",
        -9.868535653875352
      ],
      [
        "▁2003",
        -9.868910009189944
      ],
      [
        "ência",
        -9.869340610737408
      ],
      [
        "▁necessidades",
        -9.869468303444451
      ],
      [
        "nos",
        -9.86998849574489
      ],
      [
        "▁membro",
        -9.87001265117829
      ],
      [
        "▁policiais",
        -9.871549671558396
      ],
      [
        "▁níveis",
        -9.872469993543628
      ],
      [
        "▁consciência",
        -9.872559143699396
      ],
      [
        "lar",
        -9.872648887108054
      ],
      [
        "▁normal",
        -9.873303812461057
      ],
      [
        "▁san",
        -9.874023478202169
      ],
      [
        "▁utilizado",
        -9.87459911024927
      ],
      [
        "▁distribuição",
        -9.87550409160552
      ],
      [
        "land",
        -9.875605321686493
      ],
      [
        "▁representa",
        -9.87575987787054
      ],
      [
        "eiro",
        -9.876968032056316
      ],
      [
        "▁fogo",
        -9.877135042667282
      ],
      [
        "▁suficiente",
        -9.879191431424324
      ],
      [
        "▁oferece",
        -9.88003038171884
      ],
      [
        "▁veículo",
        -9.880204494458695
      ],
      [
        "tes",
        -9.880593558856704
      ],
      [
        "▁ruas",
        -9.880904423569143
      ],
      [
        "▁saída",
        -9.88208451978972
      ],
      [
        "▁boca",
        -9.882291123115152
      ],
      [
        "▁desenvolver",
        -9.882675612875529
      ],
      [
        "▁propriedade",
        -9.88392529071946
      ],
      [
        "▁memória",
        -9.884706129767626
      ],
      [
        "▁consegue",
        -9.884725649500233
      ],
      [
        "▁alemanha",
        -9.887263757040122
      ],
      [
        "▁iniciativa",
        -9.889789522714286
      ],
      [
        "▁possam",
        -9.89001817435202
      ],
      [
        "tiva",
        -9.890282037852822
      ],
      [
        "§",
        -9.890577626696926
      ],
      [
        "tos",
        -9.89102158121452
      ],
      [
        "▁expressão",
        -9.891246312451427
      ],
      [
        "▁cores",
        -9.89371077255531
      ],
      [
        "▁promover",
        -9.895433755117056
      ],
      [
        "▁mídia",
        -9.895707850877844
      ],
      [
        "▁oliveira",
        -9.895938535874588
      ],
      [
        "ly",
        -9.896040934513426
      ],
      [
        "▁práticas",
        -9.89613727229396
      ],
      [
        "▁grau",
        -9.899006077896097
      ],
      [
        "▁inicial",
        -9.899189785426028
      ],
      [
        "▁2002",
        -9.899690846031024
      ],
      [
        "▁usuários",
        -9.90063032107826
      ],
      [
        "▁belo",
        -9.900783843832633
      ],
      [
        "▁prisão",
        -9.900806958246989
      ],
      [
        "▁globo",
        -9.900829135157466
      ],
      [
        "▁meia",
        -9.90104156970736
      ],
      [
        "▁ganhou",
        -9.901381121692534
      ],
      [
        "áveis",
        -9.90149392563836
      ],
      [
        "▁funções",
        -9.901767357661823
      ],
      [
        "▁doenças",
        -9.902553053992506
      ],
      [
        "sta",
        -9.902642514612213
      ],
      [
        "ense",
        -9.90335853931269
      ],
      [
        "▁leve",
        -9.90488345429682
      ],
      [
        "▁portuguesa",
        -9.905628910422148
      ],
      [
        "▁200",
        -9.906247533003462
      ],
      [
        "▁continuar",
        -9.907306861309332
      ],
      [
        "pro",
        -9.907813727274805
      ],
      [
        "▁vocês",
        -9.908020778642308
      ],
      [
        "«",
        -9.90899829786274
      ],
      [
        "▁demanda",
        -9.909469842217367
      ],
      [
        "▁metade",
        -9.909730584987534
      ],
      [
        "▁01",
        -9.910252224347252
      ],
      [
        "tro",
        -9.912530712764603
      ],
      [
        "por",
        -9.913576948013912
      ],
      [
        "▁temas",
        -9.913888077772697
      ],
      [
        "▁carta",
        -9.915405293012668
      ],
      [
        "▁passando",
        -9.916420958987628
      ],
      [
        "▁possuem",
        -9.916692449665062
      ],
      [
        "let",
        -9.916974184171922
      ],
      [
        "ano",
        -9.91783154744487
      ],
      [
        "▁internacionais",
        -9.918535997645098
      ],
      [
        "▁ilha",
        -9.919035172749044
      ],
      [
        "tido",
        -9.919343069530756
      ],
      [
        "▁ganhar",
        -9.919590278606057
      ],
      [
        "▁dificuldades",
        -9.919629746731308
      ],
      [
        "▁fiscal",
        -9.920333006419323
      ],
      [
        "cas",
        -9.921573711937246
      ],
      [
        "▁pensamento",
        -9.921672589263768
      ],
      [
        "▁irmão",
        -9.921779247347072
      ],
      [
        "▁fizeram",
        -9.923862039786927
      ],
      [
        "▁missão",
        -9.924140034408676
      ],
      [
        "▁investimentos",
        -9.92447153065179
      ],
      [
        "▁universo",
        -9.92583008467421
      ],
      [
        "▁operações",
        -9.92625528800283
      ],
      [
        "▁dentre",
        -9.926674698601374
      ],
      [
        "cho",
        -9.927619191043863
      ],
      [
        "▁ocorreu",
        -9.927954935278049
      ],
      [
        "▁faixa",
        -9.928224716925252
      ],
      [
        "▁caráter",
        -9.92851670155997
      ],
      [
        "▁peça",
        -9.928977526562573
      ],
      [
        "▁velho",
        -9.930014515004762
      ],
      [
        "▁pl",
        -9.931394877977764
      ],
      [
        "▁aquilo",
        -9.9316586384513
      ],
      [
        "tada",
        -9.932130634750427
      ],
      [
        "▁el",
        -9.932405086818806
      ],
      [
        "▁china",
        -9.933387976922983
      ],
      [
        "▁cabe",
        -9.933724844805791
      ],
      [
        "▁recurso",
        -9.934582313697865
      ],
      [
        "▁modelos",
        -9.935130305562891
      ],
      [
        "▁ataque",
        -9.93541550012908
      ],
      [
        "▁interesses",
        -9.935662656936056
      ],
      [
        "▁televisão",
        -9.93760555219049
      ],
      [
        "▁gênero",
        -9.93793690579493
      ],
      [
        "▁ideal",
        -9.939623813850323
      ],
      [
        "▁interessante",
        -9.939749335381904
      ],
      [
        "▁visita",
        -9.94036327192615
      ],
      [
        "▁debate",
        -9.94084379141447
      ],
      [
        "▁jo",
        -9.942261706199536
      ],
      [
        "▁obter",
        -9.944194478741654
      ],
      [
        "press",
        -9.945393556907742
      ],
      [
        "▁feliz",
        -9.946170162371171
      ],
      [
        "▁lhes",
        -9.946609285449542
      ],
      [
        "▁investimento",
        -9.948149755540465
      ],
      [
        "▁exposição",
        -9.949307049982693
      ],
      [
        "▁madeira",
        -9.949517941642554
      ],
      [
        "▁antiga",
        -9.950136776034128
      ],
      [
        "▁leite",
        -9.950235900207328
      ],
      [
        "▁32",
        -9.950571408330482
      ],
      [
        "▁rosa",
        -9.951402349196952
      ],
      [
        "▁representantes",
        -9.95191552017703
      ],
      [
        "▁eduardo",
        -9.95281971161718
      ],
      [
        "▁receita",
        -9.952998057144512
      ],
      [
        "bre",
        -9.953021753417376
      ],
      [
        "▁45",
        -9.953171597959413
      ],
      [
        "▁bahia",
        -9.953445746915556
      ],
      [
        "▁negócio",
        -9.95362762389373
      ],
      [
        "#",
        -9.95470425735424
      ],
      [
        "▁paciente",
        -9.955374464196524
      ],
      [
        "lado",
        -9.956715605852402
      ],
      [
        "▁moral",
        -9.957118142462596
      ],
      [
        "ito",
        -9.957524086126975
      ],
      [
        "▁chama",
        -9.957616930171431
      ],
      [
        "▁independente",
        -9.95836421407424
      ],
      [
        "▁alma",
        -9.958697631066643
      ],
      [
        "▁rock",
        -9.959132759230132
      ],
      [
        "▁naquele",
        -9.959711659842917
      ],
      [
        "▁entidade",
        -9.961858425008252
      ],
      [
        "▁global",
        -9.961914981883996
      ],
      [
        "▁vir",
        -9.962392032325427
      ],
      [
        "▁melhorar",
        -9.96379494565446
      ],
      [
        "▁oeste",
        -9.963813086120489
      ],
      [
        "ara",
        -9.96391312166998
      ],
      [
        "▁crítica",
        -9.964017917753395
      ],
      [
        "▁consumidor",
        -9.964793131720342
      ],
      [
        "▁decreto",
        -9.96524862496068
      ],
      [
        "▁esporte",
        -9.96643844167398
      ],
      [
        "▁candidatos",
        -9.966859371524125
      ],
      [
        "▁nomes",
        -9.96699782581853
      ],
      [
        "▁loja",
        -9.96902511628232
      ],
      [
        "▁foco",
        -9.969032144489804
      ],
      [
        "▁normas",
        -9.969257449675952
      ],
      [
        "▁sinal",
        -9.969527202222402
      ],
      [
        "▁aproximadamente",
        -9.970196638859464
      ],
      [
        "atos",
        -9.970215260417298
      ],
      [
        "▁museu",
        -9.970864750116888
      ],
      [
        "▁jogar",
        -9.972846559029316
      ],
      [
        "▁basta",
        -9.974166651122564
      ],
      [
        "gen",
        -9.97447928392496
      ],
      [
        "▁carros",
        -9.974496924349875
      ],
      [
        "°",
        -9.974548559678327
      ],
      [
        "▁abrir",
        -9.974575110885109
      ],
      [
        "▁discurso",
        -9.974893731371171
      ],
      [
        "▁digital",
        -9.975572912501152
      ],
      [
        "▁planeta",
        -9.976452639576204
      ],
      [
        "ty",
        -9.976460208160416
      ],
      [
        "▁discussão",
        -9.977717875675866
      ],
      [
        "▁2001",
        -9.9777262115752
      ],
      [
        "▁concurso",
        -9.977956746172824
      ],
      [
        "▁literatura",
        -9.97856899946764
      ],
      [
        "han",
        -9.980040744381649
      ],
      [
        "▁posso",
        -9.98202848657004
      ],
      [
        "▁sobretudo",
        -9.982408086857756
      ],
      [
        "▁tirar",
        -9.98267723977354
      ],
      [
        "▁legislação",
        -9.982884324669008
      ],
      [
        "▁desejo",
        -9.983443045311262
      ],
      [
        "▁alegre",
        -9.984541203446696
      ],
      [
        "▁praça",
        -9.985382325161122
      ],
      [
        "▁longa",
        -9.98557038158425
      ],
      [
        "▁feitas",
        -9.985609863185354
      ],
      [
        "▁rápido",
        -9.985667612752271
      ],
      [
        "ist",
        -9.98602699426813
      ],
      [
        "▁etapa",
        -9.986281573479763
      ],
      [
        "▁ler",
        -9.987473322706446
      ],
      [
        "▁espera",
        -9.98807765780315
      ],
      [
        "▁influência",
        -9.98909089906195
      ],
      [
        "▁lugares",
        -9.989186376872016
      ],
      [
        "▁passagem",
        -9.989290469414987
      ],
      [
        "▁delas",
        -9.990521240327348
      ],
      [
        "▁clima",
        -9.991736667434918
      ],
      [
        "▁tradicional",
        -9.991852288079109
      ],
      [
        "▁somos",
        -9.992062368360308
      ],
      [
        "▁sentir",
        -9.993005778158803
      ],
      [
        "▁especiais",
        -9.993168450094972
      ],
      [
        "▁página",
        -9.993537531021463
      ],
      [
        "▁afinal",
        -9.993678183045656
      ],
      [
        "▁escrita",
        -9.99461546164216
      ],
      [
        "▁impacto",
        -9.994860750835649
      ],
      [
        "▁direita",
        -9.994868231609182
      ],
      [
        "▁provavelmente",
        -9.995946223615569
      ],
      [
        "▁estádio",
        -9.996239579041225
      ],
      [
        "▁esposa",
        -9.99638048647127
      ],
      [
        "▁deixando",
        -9.996712868560396
      ],
      [
        "net",
        -9.996859808000156
      ],
      [
        "▁dúvida",
        -9.997978395885363
      ],
      [
        "▁marido",
        -9.999668516477367
      ],
      [
        "cul",
        -9.999884805299091
      ],
      [
        "▁agentes",
        -10.00005724413954
      ],
      [
        "▁particular",
        -10.000486848076006
      ],
      [
        "▁princípios",
        -10.001367508047585
      ],
      [
        "rado",
        -10.001417074643305
      ],
      [
        "▁campeão",
        -10.002055790295229
      ],
      [
        "▁avenida",
        -10.0026953756096
      ],
      [
        "▁potencial",
        -10.00357814636514
      ],
      [
        "tor",
        -10.004669049135067
      ],
      [
        "▁benefícios",
        -10.005374783070495
      ],
      [
        "▁vendas",
        -10.005771816849933
      ],
      [
        "▁pequenos",
        -10.006891963841538
      ],
      [
        "▁fazenda",
        -10.007305698330912
      ],
      [
        "▁médicos",
        -10.008154832367664
      ],
      [
        "rei",
        -10.008604970069404
      ],
      [
        "▁praia",
        -10.009857051476263
      ],
      [
        "nas",
        -10.011858155193634
      ],
      [
        "▁autores",
        -10.011951369630186
      ],
      [
        "▁movimentos",
        -10.012164405297415
      ],
      [
        "▁oferecer",
        -10.013645078464258
      ],
      [
        "▁face",
        -10.014765859319231
      ],
      [
        "▁entidades",
        -10.01630754810092
      ],
      [
        "▁corre",
        -10.01801642344194
      ],
      [
        "▁esteve",
        -10.018222519866962
      ],
      [
        "tado",
        -10.018905084614046
      ],
      [
        "▁animal",
        -10.019233289113814
      ],
      [
        "ent",
        -10.0205326037131
      ],
      [
        "▁preto",
        -10.02075732355888
      ],
      [
        "▁sai",
        -10.022739703011776
      ],
      [
        "▁nacionais",
        -10.02421711620324
      ],
      [
        "▁café",
        -10.025022186488394
      ],
      [
        "▁exterior",
        -10.025290678706671
      ],
      [
        "▁próprios",
        -10.025619374728803
      ],
      [
        "▁escala",
        -10.026853934642077
      ],
      [
        "▁contudo",
        -10.027171139667349
      ],
      [
        "▁seguintes",
        -10.027506655582036
      ],
      [
        "▁dizendo",
        -10.027733217650166
      ],
      [
        "ário",
        -10.028677688732722
      ],
      [
        "▁vive",
        -10.02875444868901
      ],
      [
        "▁normalmente",
        -10.029994523734471
      ],
      [
        "mas",
        -10.030006311850352
      ],
      [
        "▁cuidado",
        -10.031272364083708
      ],
      [
        "▁musical",
        -10.03180467067596
      ],
      [
        "▁pretende",
        -10.032002679286911
      ],
      [
        "▁participantes",
        -10.032512115546142
      ],
      [
        "▁evolução",
        -10.033313079121012
      ],
      [
        "▁industrial",
        -10.03365075583771
      ],
      [
        "riam",
        -10.033818997830377
      ],
      [
        "▁drogas",
        -10.033840930972527
      ],
      [
        "▁cena",
        -10.0344939234027
      ],
      [
        "▁antônio",
        -10.034979801382477
      ],
      [
        "ste",
        -10.035405725602349
      ],
      [
        "▁votos",
        -10.036730526886227
      ],
      [
        "▁iii",
        -10.036899953521576
      ],
      [
        "▁naturais",
        -10.036928425010512
      ],
      [
        "▁assembleia",
        -10.037213787276166
      ],
      [
        "▁relatório",
        -10.03793537655866
      ],
      [
        "▁sin",
        -10.038783959411008
      ],
      [
        "vel",
        -10.039173831455798
      ],
      [
        "▁beleza",
        -10.03946694005098
      ],
      [
        "▁rep",
        -10.040114201475678
      ],
      [
        "ato",
        -10.040404177376708
      ],
      [
        "▁fiz",
        -10.041958822219554
      ],
      [
        "▁posse",
        -10.042467114231576
      ],
      [
        "▁penal",
        -10.042530779593164
      ],
      [
        "agem",
        -10.04317967324515
      ],
      [
        "▁ouvir",
        -10.04392375015266
      ],
      [
        "▁enorme",
        -10.044356951106822
      ],
      [
        "chi",
        -10.045188113500627
      ],
      [
        "▁leis",
        -10.045291099940394
      ],
      [
        "▁esteja",
        -10.04540793784383
      ],
      [
        "▁tra",
        -10.046484299050007
      ],
      [
        "▁responsáveis",
        -10.046990690411963
      ],
      [
        "▁publicado",
        -10.047640447522516
      ],
      [
        "▁voto",
        -10.04796731321995
      ],
      [
        "▁graduação",
        -10.04850798752259
      ],
      [
        "tal",
        -10.04867030888247
      ],
      [
        "▁poderão",
        -10.049203891109288
      ],
      [
        "▁festival",
        -10.049525439561776
      ],
      [
        "▁esp",
        -10.05042480479393
      ],
      [
        "▁jornalista",
        -10.051109964164
      ],
      [
        "▁artista",
        -10.051282655593656
      ],
      [
        "▁vítima",
        -10.05166222335486
      ],
      [
        "▁ciências",
        -10.05192803358382
      ],
      [
        "▁custos",
        -10.053191723477545
      ],
      [
        "▁tentativa",
        -10.05334410338961
      ],
      [
        "▁procura",
        -10.053652765586282
      ],
      [
        "▁gostaria",
        -10.053678104018672
      ],
      [
        "▁método",
        -10.054183675997994
      ],
      [
        "▁bons",
        -10.055607957749908
      ],
      [
        "▁praticamente",
        -10.055816916698932
      ],
      [
        "▁finalmente",
        -10.05635362892282
      ],
      [
        "est",
        -10.056516267929563
      ],
      [
        "▁extra",
        -10.057641267783712
      ],
      [
        "▁resistência",
        -10.057909733216285
      ],
      [
        "▁trânsito",
        -10.05841025937206
      ],
      [
        "▁guia",
        -10.059259629298907
      ],
      [
        "▁reduzir",
        -10.0597792837411
      ],
      [
        "▁entrou",
        -10.061971778472271
      ],
      [
        "▁pequenas",
        -10.06281562589428
      ],
      [
        "▁viu",
        -10.064090246871263
      ],
      [
        "▁tornando",
        -10.06427884060255
      ],
      [
        "▁funcionamento",
        -10.064765422288325
      ],
      [
        "▁usuário",
        -10.064778881189111
      ],
      [
        "▁pmdb",
        -10.065470791164987
      ],
      [
        "▁utilizar",
        -10.065491395290168
      ],
      [
        "▁contou",
        -10.06561998676803
      ],
      [
        "▁escrito",
        -10.065884297653335
      ],
      [
        "▁usa",
        -10.066918939122836
      ],
      [
        "ix",
        -10.067044282098443
      ],
      [
        "▁meios",
        -10.067335765001808
      ],
      [
        "izada",
        -10.067541793013518
      ],
      [
        "▁identidade",
        -10.068048050304649
      ],
      [
        "▁estação",
        -10.068049716383038
      ],
      [
        "▁john",
        -10.068742318001108
      ],
      [
        "▁faça",
        -10.068794709670648
      ],
      [
        "ang",
        -10.06946814044272
      ],
      [
        "▁direta",
        -10.06947032566916
      ],
      [
        "▁carga",
        -10.069482975195788
      ],
      [
        "cha",
        -10.069931814417442
      ],
      [
        "▁espécies",
        -10.06995487220006
      ],
      [
        "▁artistas",
        -10.07012094296071
      ],
      [
        "▁aluno",
        -10.07012550223808
      ],
      [
        "iva",
        -10.07057386936804
      ],
      [
        "▁linguagem",
        -10.07096397642225
      ],
      [
        "▁lembrar",
        -10.07117527711341
      ],
      [
        "▁canção",
        -10.071574067139084
      ],
      [
        "▁escrever",
        -10.072787288103692
      ],
      [
        "▁estratégia",
        -10.07331153063656
      ],
      [
        "▁haver",
        -10.073465105987689
      ],
      [
        "▁objetivos",
        -10.073506482855226
      ],
      [
        "▁aberto",
        -10.073750307507536
      ],
      [
        "▁linhas",
        -10.074094517186726
      ],
      [
        "▁julgamento",
        -10.07440739574775
      ],
      [
        "▁mata",
        -10.074995388219108
      ],
      [
        "▁seguro",
        -10.07553473566193
      ],
      [
        "▁escolher",
        -10.076089716759853
      ],
      [
        "▁roberto",
        -10.076349458190602
      ],
      [
        "▁cai",
        -10.077088056903817
      ],
      [
        ">",
        -10.078256563046272
      ],
      [
        "▁refere",
        -10.078826264344306
      ],
      [
        "▁planos",
        -10.079316077685208
      ],
      [
        "fin",
        -10.079586268782675
      ],
      [
        "▁senador",
        -10.079811952448363
      ],
      [
        "▁graças",
        -10.081537064955558
      ],
      [
        "▁âmbito",
        -10.08221551141456
      ],
      [
        "▁familiar",
        -10.082253841913465
      ],
      [
        "tion",
        -10.082322083111364
      ],
      [
        "▁financeira",
        -10.08442322763039
      ],
      [
        "▁deputados",
        -10.084528952534946
      ],
      [
        "▁detalhes",
        -10.08499817866214
      ],
      [
        "ki",
        -10.08667921919511
      ],
      [
        "ger",
        -10.087333753200944
      ],
      [
        "▁democracia",
        -10.088672644927474
      ],
      [
        "▁dificuldade",
        -10.090350617010955
      ],
      [
        "▁gal",
        -10.090632084665218
      ],
      [
        "▁aula",
        -10.090729169775754
      ],
      [
        "ico",
        -10.09075097264006
      ],
      [
        "▁acredita",
        -10.090786510077054
      ],
      [
        "▁acidente",
        -10.090890940860238
      ],
      [
        "til",
        -10.091961377521123
      ],
      [
        "▁recentemente",
        -10.092047103525989
      ],
      [
        "ment",
        -10.093883184955114
      ],
      [
        "▁autoridades",
        -10.094307453975096
      ],
      [
        "mir",
        -10.095009003743751
      ],
      [
        "▁apresentou",
        -10.095372675213248
      ],
      [
        "▁alimentação",
        -10.095734493860002
      ],
      [
        "▁moradores",
        -10.095883669537342
      ],
      [
        "▁aparece",
        -10.09638097110355
      ],
      [
        "▁medicina",
        -10.09645456756373
      ],
      [
        "ham",
        -10.097266678743448
      ],
      [
        "▁destino",
        -10.097428606919827
      ],
      [
        "▁jurídica",
        -10.09777445469176
      ],
      [
        "▁ci",
        -10.098216883997
      ],
      [
        "▁barra",
        -10.098367276641588
      ],
      [
        "▁papa",
        -10.099148823497591
      ],
      [
        "▁orçamento",
        -10.100797615881682
      ],
      [
        "▁vagas",
        -10.10148620034433
      ],
      [
        "▁decisões",
        -10.101657251525644
      ],
      [
        "▁idéia",
        -10.101675145247167
      ],
      [
        "▁resolução",
        -10.102104291749464
      ],
      [
        "tel",
        -10.102990541935
      ],
      [
        "▁buscar",
        -10.10328256103858
      ],
      [
        "▁agricultura",
        -10.104681842722773
      ],
      [
        "▁tivesse",
        -10.105156772300164
      ],
      [
        "▁boas",
        -10.105449578919592
      ],
      [
        "▁exatamente",
        -10.105486440632298
      ],
      [
        "▁oposição",
        -10.105525644155296
      ],
      [
        "▁jeito",
        -10.105869382985524
      ],
      [
        "▁publicação",
        -10.106071817255332
      ],
      [
        "▁design",
        -10.107580235647417
      ],
      [
        "▁provas",
        -10.107819222801288
      ],
      [
        "▁moda",
        -10.108921277775565
      ],
      [
        "cer",
        -10.109082492888392
      ],
      [
        "▁podendo",
        -10.10929683304464
      ],
      [
        "▁aprender",
        -10.109671654670974
      ],
      [
        "▁administrativa",
        -10.10998941376556
      ],
      [
        "ret",
        -10.11005159414273
      ],
      [
        "▁tri",
        -10.110147133882936
      ],
      [
        "▁investigação",
        -10.110264521135868
      ],
      [
        "▁determinado",
        -10.110413508553332
      ],
      [
        "▁pan",
        -10.110419390624166
      ],
      [
        "▁azul",
        -10.110877566869476
      ],
      [
        "▁folha",
        -10.110892232470576
      ],
      [
        "▁recebe",
        -10.111147645177132
      ],
      [
        "▁veja",
        -10.11211835238685
      ],
      [
        "▁paraná",
        -10.112349635963536
      ],
      [
        "▁min",
        -10.11257025673631
      ],
      [
        "▁33",
        -10.113019573555242
      ],
      [
        "▁próximos",
        -10.113066143763652
      ],
      [
        "▁criada",
        -10.113268592202552
      ],
      [
        "▁micro",
        -10.113967614397296
      ],
      [
        "▁criou",
        -10.11441375594141
      ],
      [
        "▁salário",
        -10.114881129097522
      ],
      [
        "▁esperança",
        -10.115467688424944
      ],
      [
        "▁armas",
        -10.115531648418443
      ],
      [
        "▁nasceu",
        -10.116410503629186
      ],
      [
        "iana",
        -10.11646763323832
      ],
      [
        "▁falando",
        -10.116953551609782
      ],
      [
        "▁produzir",
        -10.118860853146908
      ],
      [
        "▁levando",
        -10.121957838024295
      ],
      [
        "▁organizações",
        -10.12263959966283
      ],
      [
        "▁advogado",
        -10.122977094117502
      ],
      [
        "▁retorno",
        -10.123405324037297
      ],
      [
        "▁construir",
        -10.123429584797606
      ],
      [
        "▁vereador",
        -10.124356148408069
      ],
      [
        "cen",
        -10.124362565555147
      ],
      [
        "▁reconhecimento",
        -10.12521565640382
      ],
      [
        "▁paris",
        -10.125715658622056
      ],
      [
        "▁precisam",
        -10.125851491646232
      ],
      [
        "▁02",
        -10.127397948346143
      ],
      [
        "▁uni",
        -10.12758121035017
      ],
      [
        "antes",
        -10.127697253059951
      ],
      [
        "▁completamente",
        -10.127910407091768
      ],
      [
        "▁posto",
        -10.12825512280521
      ],
      [
        "▁completo",
        -10.128921114926596
      ],
      [
        "▁engenharia",
        -10.129298142733
      ],
      [
        "▁rural",
        -10.129442873400247
      ],
      [
        "▁carne",
        -10.129870834306375
      ],
      [
        "▁posteriormente",
        -10.12993690776869
      ],
      [
        "ser",
        -10.130491129691498
      ],
      [
        "▁sonho",
        -10.13102260850568
      ],
      [
        "▁considerando",
        -10.13118258283458
      ],
      [
        "▁indivíduos",
        -10.131823104513062
      ],
      [
        "▁considerada",
        -10.13294154204642
      ],
      [
        "▁tive",
        -10.133804793499822
      ],
      [
        "▁oferta",
        -10.133976909596727
      ],
      [
        "▁eleição",
        -10.134038034181971
      ],
      [
        "tim",
        -10.134795218722976
      ],
      [
        "▁05",
        -10.135150192483865
      ],
      [
        "▁localizado",
        -10.135217821079417
      ],
      [
        "▁tratar",
        -10.135645493525663
      ],
      [
        "▁erro",
        -10.13613443203407
      ],
      [
        "▁jorge",
        -10.136393468135122
      ],
      [
        "▁culturais",
        -10.13639763219197
      ],
      [
        "▁artes",
        -10.136475814833078
      ],
      [
        "▁constitucional",
        -10.1376195438314
      ],
      [
        "▁verdadeiro",
        -10.137732618587624
      ],
      [
        "▁estrada",
        -10.137807570765403
      ],
      [
        "iano",
        -10.13835861733746
      ],
      [
        "▁sindicato",
        -10.13940086270371
      ],
      [
        "▁trazer",
        -10.139534274661989
      ],
      [
        "▁tabela",
        -10.140222926976154
      ],
      [
        "pir",
        -10.140475352950574
      ],
      [
        "▁temperatura",
        -10.14060214392647
      ],
      [
        "via",
        -10.140705596152449
      ],
      [
        "▁esforço",
        -10.140997578218991
      ],
      [
        "bel",
        -10.141280326416547
      ],
      [
        "▁segue",
        -10.14149990074043
      ],
      [
        "▁individual",
        -10.14220172712734
      ],
      [
        "▁mato",
        -10.14297481031296
      ],
      [
        "los",
        -10.143639979321971
      ],
      [
        "▁fontes",
        -10.143820847581434
      ],
      [
        "▁equipes",
        -10.143983390051453
      ],
      [
        "▁casal",
        -10.14518873233152
      ],
      [
        "▁36",
        -10.145545401754736
      ],
      [
        "▁reserva",
        -10.14717389751207
      ],
      [
        "▁constante",
        -10.14847620875893
      ],
      [
        "▁índice",
        -10.148696592227097
      ],
      [
        "▁mandato",
        -10.14871307971417
      ],
      [
        "▁opções",
        -10.148977362136089
      ],
      [
        "▁nove",
        -10.14899365419022
      ],
      [
        "▁ciclo",
        -10.149373474566028
      ],
      [
        "▁realizadas",
        -10.149618596926745
      ],
      [
        "|",
        -10.149741908007044
      ],
      [
        "▁ausência",
        -10.150321373484442
      ],
      [
        "▁exame",
        -10.150405484942056
      ],
      [
        "▁fo",
        -10.150866965469987
      ],
      [
        "▁daquele",
        -10.151120192222232
      ],
      [
        "▁francesa",
        -10.1513275572335
      ],
      [
        "▁hotel",
        -10.151876717062128
      ],
      [
        "▁israel",
        -10.153219836166189
      ],
      [
        "air",
        -10.15347892573944
      ],
      [
        "▁turismo",
        -10.154290330231756
      ],
      [
        "cin",
        -10.155353538981895
      ],
      [
        "▁voltou",
        -10.156476527277936
      ],
      [
        "▁teste",
        -10.156708404219254
      ],
      [
        "▁promoção",
        -10.1571897431245
      ],
      [
        "▁ficam",
        -10.157713561050103
      ],
      [
        "ela",
        -10.158017640674888
      ],
      [
        "▁americanos",
        -10.158897269017976
      ],
      [
        "bal",
        -10.15898779211612
      ],
      [
        "▁extensão",
        -10.159037863299364
      ],
      [
        "▁sexual",
        -10.159161277022864
      ],
      [
        "▁relacionamento",
        -10.160145598943764
      ],
      [
        "▁instrumento",
        -10.16060304548795
      ],
      [
        "▁mestre",
        -10.160796617761598
      ],
      [
        "▁amar",
        -10.1609461129218
      ],
      [
        "▁presidência",
        -10.161400969603903
      ],
      [
        "▁monte",
        -10.161582767789891
      ],
      [
        "▁necessária",
        -10.16184733325298
      ],
      [
        "▁dança",
        -10.162030121999356
      ],
      [
        "rar",
        -10.162330594158211
      ],
      [
        "gua",
        -10.163366156627076
      ],
      [
        "rão",
        -10.16358197471389
      ],
      [
        "▁marketing",
        -10.163608865412794
      ],
      [
        "▁ben",
        -10.1637095177603
      ],
      [
        "▁indivíduo",
        -10.164033607836789
      ],
      [
        "▁milhares",
        -10.164158117660614
      ],
      [
        "▁participou",
        -10.16418697682145
      ],
      [
        "▁filosofia",
        -10.164290401414068
      ],
      [
        "▁infantil",
        -10.16505875547759
      ],
      [
        "▁www",
        -10.16526405867677
      ],
      [
        "▁visual",
        -10.165671446457209
      ],
      [
        "▁semanas",
        -10.165728445657948
      ],
      [
        "▁dis",
        -10.165863820052152
      ],
      [
        "▁excelente",
        -10.16648842752802
      ],
      [
        "▁general",
        -10.16712055616263
      ],
      [
        "▁físico",
        -10.16752090472482
      ],
      [
        "▁computador",
        -10.167696409585718
      ],
      [
        "▁ferro",
        -10.168497163706244
      ],
      [
        "▁espanha",
        -10.168554874772624
      ],
      [
        "▁estiver",
        -10.168852533617407
      ],
      [
        "▁menores",
        -10.16935682428697
      ],
      [
        "▁cr",
        -10.169830129396736
      ],
      [
        "▁03",
        -10.170050745051086
      ],
      [
        "▁fatos",
        -10.170096070281156
      ],
      [
        "▁juntamente",
        -10.171057302668904
      ],
      [
        "▁anteriores",
        -10.17180976615655
      ],
      [
        "▁revolução",
        -10.172658330459791
      ],
      [
        "▁setores",
        -10.172714517305243
      ],
      [
        "▁escolar",
        -10.17275080901492
      ],
      [
        "▁diretoria",
        -10.172793490152262
      ],
      [
        "▁confiança",
        -10.172828557921436
      ],
      [
        "ini",
        -10.173429281229192
      ],
      [
        "▁localizada",
        -10.173450421362077
      ],
      [
        "▁francês",
        -10.173686100472333
      ],
      [
        "▁alegria",
        -10.173745811849647
      ],
      [
        "▁argentina",
        -10.174521054188892
      ],
      [
        "▁patrimônio",
        -10.174928052358258
      ],
      [
        "▁corrida",
        -10.175094531057784
      ],
      [
        "▁perdeu",
        -10.175860839264084
      ],
      [
        "▁henrique",
        -10.176261414208176
      ],
      [
        "▁cabelo",
        -10.17656075078683
      ],
      [
        "▁textos",
        -10.176651706289867
      ],
      [
        "▁pal",
        -10.1771578642641
      ],
      [
        "▁apresentado",
        -10.177271162172406
      ],
      [
        "che",
        -10.17734435754918
      ],
      [
        "tan",
        -10.178299968099132
      ],
      [
        "▁danos",
        -10.17842953372253
      ],
      [
        "cor",
        -10.178608166715865
      ],
      [
        "▁querem",
        -10.17866721721861
      ],
      [
        "▁passaram",
        -10.178708003978512
      ],
      [
        "▁programação",
        -10.178739552509086
      ],
      [
        "▁fazia",
        -10.178903096106792
      ],
      [
        "▁autoridade",
        -10.17913008099751
      ],
      [
        "▁rec",
        -10.179180223192484
      ],
      [
        "▁resto",
        -10.17931748173545
      ],
      [
        "▁crimes",
        -10.179361071423408
      ],
      [
        "▁senado",
        -10.179633701398412
      ],
      [
        "▁dito",
        -10.179811428769533
      ],
      [
        "▁itália",
        -10.180629322777104
      ],
      [
        "▁verão",
        -10.18149506141675
      ],
      [
        "▁dupla",
        -10.18152644806247
      ],
      [
        "▁começo",
        -10.182209877563562
      ],
      [
        "▁lima",
        -10.18255794221481
      ],
      [
        "▁artigos",
        -10.18357455405328
      ],
      [
        "▁inclui",
        -10.183780818334537
      ],
      [
        "▁ônibus",
        -10.183880276064604
      ],
      [
        "▁soluções",
        -10.184009413452207
      ],
      [
        "▁batalha",
        -10.18434127200944
      ],
      [
        "▁interna",
        -10.184443587239672
      ],
      [
        "▁financeiro",
        -10.184825775880986
      ],
      [
        "▁trás",
        -10.18574140480642
      ],
      [
        "ivo",
        -10.18595528146151
      ],
      [
        "▁experiências",
        -10.186159550509762
      ],
      [
        "▁cal",
        -10.186603469325268
      ],
      [
        "ley",
        -10.186829837525806
      ],
      [
        "▁senhora",
        -10.188593305714058
      ],
      [
        "▁assuntos",
        -10.189771322195291
      ],
      [
        "rada",
        -10.19017256124161
      ],
      [
        "▁mistura",
        -10.190233841185178
      ],
      [
        "▁horário",
        -10.190332529645165
      ],
      [
        "▁policial",
        -10.19086813600534
      ],
      [
        "▁academia",
        -10.19087177420287
      ],
      [
        "▁nações",
        -10.192083730329603
      ],
      [
        "▁elétrica",
        -10.192653368719473
      ],
      [
        "bri",
        -10.19298418790547
      ],
      [
        "▁acontecer",
        -10.194212111654002
      ],
      [
        "▁vaga",
        -10.194275658169502
      ],
      [
        "”",
        -10.194359851674934
      ],
      [
        "“",
        -10.195160138612945
      ],
      [
        "▁trabalha",
        -10.195204390298432
      ],
      [
        "▁suporte",
        -10.19583550385452
      ],
      [
        "▁mesmos",
        -10.196700996883912
      ],
      [
        "▁lisboa",
        -10.19677806494342
      ],
      [
        "▁funciona",
        -10.19681646688937
      ],
      [
        "▁pedir",
        -10.19716263518129
      ],
      [
        "▁intenção",
        -10.197389886265023
      ],
      [
        "▁cabo",
        -10.198068374153864
      ],
      [
        "▁céu",
        -10.199742145648996
      ],
      [
        "▁células",
        -10.19974459361958
      ],
      [
        "▁corrupção",
        -10.199823592641453
      ],
      [
        "▁haja",
        -10.200291109358652
      ],
      [
        "▁rapidamente",
        -10.201266417021309
      ],
      [
        "▁disponível",
        -10.201349984889651
      ],
      [
        "▁recente",
        -10.202210674282629
      ],
      [
        "▁instalação",
        -10.202499438571223
      ],
      [
        "▁falou",
        -10.202660164190664
      ],
      [
        "▁09",
        -10.2030562493171
      ],
      [
        "▁interno",
        -10.204252588652952
      ],
      [
        "▁trabalhador",
        -10.204445093223892
      ],
      [
        "▁meta",
        -10.204997435218656
      ],
      [
        "cess",
        -10.205516446745662
      ],
      [
        "▁mor",
        -10.205539656968291
      ],
      [
        "▁dizem",
        -10.206667188474093
      ],
      [
        "▁vermelho",
        -10.20676814505862
      ],
      [
        "▁áfrica",
        -10.207157945049312
      ],
      [
        "▁nascimento",
        -10.207221856089502
      ],
      [
        "▁08",
        -10.20742395601315
      ],
      [
        "▁superfície",
        -10.207478953250314
      ],
      [
        "▁fins",
        -10.20763070544674
      ],
      [
        "cri",
        -10.208553055953828
      ],
      [
        "fre",
        -10.208807201454077
      ],
      [
        "▁aulas",
        -10.209231300690911
      ],
      [
        "ica",
        -10.209232321187487
      ],
      [
        "▁procedimentos",
        -10.210151275470194
      ],
      [
        "▁limite",
        -10.210285133970206
      ],
      [
        "▁jardim",
        -10.210573030658155
      ],
      [
        "▁arma",
        -10.210642431082556
      ],
      [
        "val",
        -10.210775232566142
      ],
      [
        "▁casas",
        -10.211589918130878
      ],
      [
        "▁objetos",
        -10.211685223422654
      ],
      [
        "tec",
        -10.211861707875045
      ],
      [
        "▁terem",
        -10.2123994170539
      ],
      [
        "▁recuperação",
        -10.212498989429426
      ],
      [
        "zinho",
        -10.21295115071318
      ],
      [
        "▁can",
        -10.213029105867124
      ],
      [
        "▁1999",
        -10.213769157139824
      ],
      [
        "▁definição",
        -10.214322835241664
      ],
      [
        "▁saiu",
        -10.214433997184688
      ],
      [
        "▁comuns",
        -10.215554337679372
      ],
      [
        "▁mensagem",
        -10.216389484351325
      ],
      [
        "▁diário",
        -10.216745178905562
      ],
      [
        "▁conversa",
        -10.216990414867984
      ],
      [
        "▁familiares",
        -10.21754719192964
      ],
      [
        "▁luís",
        -10.21781004002525
      ],
      [
        "▁formado",
        -10.218808644119022
      ],
      [
        "▁baseado",
        -10.218921548986684
      ],
      [
        "▁cidadão",
        -10.220783084372751
      ],
      [
        "▁império",
        -10.220865799137874
      ],
      [
        "▁divulgação",
        -10.221377843732844
      ],
      [
        "▁salvador",
        -10.221395381600534
      ],
      [
        "▁perceber",
        -10.222037652007266
      ],
      [
        "▁ti",
        -10.222523966896562
      ],
      [
        "▁óleo",
        -10.223436738472056
      ],
      [
        "▁destes",
        -10.22351124917561
      ],
      [
        "iza",
        -10.223754795016628
      ],
      [
        "▁daniel",
        -10.224632972750502
      ],
      [
        "▁integração",
        -10.224836475158249
      ],
      [
        "▁irmãos",
        -10.225443277545327
      ],
      [
        "▁clara",
        -10.225567715284614
      ],
      [
        "▁eleito",
        -10.225925516018902
      ],
      [
        "▁grosso",
        -10.22737170943252
      ],
      [
        "▁ator",
        -10.22748375943419
      ],
      [
        "▁ritmo",
        -10.22797723067142
      ],
      [
        "▁telefone",
        -10.229196034345748
      ],
      [
        "▁1990",
        -10.229380022646929
      ],
      [
        "▁títulos",
        -10.22974048389671
      ],
      [
        "▁seres",
        -10.229915315535898
      ],
      [
        "▁34",
        -10.231237738880814
      ],
      [
        "▁grave",
        -10.231766647543294
      ],
      [
        "▁feminino",
        -10.231774122181362
      ],
      [
        "▁agente",
        -10.233077221724296
      ],
      [
        "▁garantia",
        -10.23550753798674
      ],
      [
        "▁04",
        -10.235612047686171
      ],
      [
        "▁letras",
        -10.235636671331989
      ],
      [
        "▁conclusão",
        -10.236046635610371
      ],
      [
        "▁humanidade",
        -10.23639588916867
      ],
      [
        "▁enfim",
        -10.236557494099408
      ],
      [
        "▁ponta",
        -10.236654901392436
      ],
      [
        "enta",
        -10.236956420489614
      ],
      [
        "▁técnicos",
        -10.237244201640465
      ],
      [
        "▁classificação",
        -10.237285121885796
      ],
      [
        "▁mediante",
        -10.23820485784432
      ],
      [
        "▁preso",
        -10.23822736903561
      ],
      [
        "▁aprovação",
        -10.238353025647127
      ],
      [
        "▁extremamente",
        -10.23945428478394
      ],
      [
        "▁episódio",
        -10.23997262476228
      ],
      [
        "▁juros",
        -10.24007759390092
      ],
      [
        "▁ocasião",
        -10.24113309171932
      ],
      [
        "▁culpa",
        -10.242085001179152
      ],
      [
        "▁mostrou",
        -10.24282783623705
      ],
      [
        "▁online",
        -10.24293812157495
      ],
      [
        "▁tendência",
        -10.244042273504943
      ],
      [
        "▁sujeito",
        -10.24428204086371
      ],
      [
        "▁acredito",
        -10.244478587523522
      ],
      [
        "▁rosto",
        -10.244677819858182
      ],
      [
        "▁feitos",
        -10.245174694704788
      ],
      [
        "▁branca",
        -10.24536429101673
      ],
      [
        "▁inicialmente",
        -10.245634952829548
      ],
      [
        "▁cap",
        -10.245635463949368
      ],
      [
        "▁identificar",
        -10.245999570059396
      ],
      [
        "▁atingir",
        -10.246315912135158
      ],
      [
        "▁números",
        -10.246612630523106
      ],
      [
        "▁comentários",
        -10.247106437386767
      ],
      [
        "▁06",
        -10.248257429520237
      ],
      [
        "▁300",
        -10.248314430262653
      ],
      [
        "▁limites",
        -10.248569347562178
      ],
      [
        "▁décadas",
        -10.248821416072008
      ],
      [
        "▁compromisso",
        -10.248863521482884
      ],
      [
        "▁37",
        -10.250020532797784
      ],
      [
        "▁disponíveis",
        -10.250265890793669
      ],
      [
        "▁direto",
        -10.250418064865366
      ],
      [
        "▁marco",
        -10.251165798857045
      ],
      [
        "▁escreveu",
        -10.251555168899204
      ],
      [
        "▁est",
        -10.251848810833618
      ],
      [
        "▁pergunta",
        -10.251883881034988
      ],
      [
        "▁propostas",
        -10.252247130393638
      ],
      [
        "▁1998",
        -10.252322706544955
      ],
      [
        "▁leste",
        -10.252593142186113
      ],
      [
        "▁tr",
        -10.25318920662007
      ],
      [
        "▁verdadeira",
        -10.25322473174803
      ],
      [
        "▁inferior",
        -10.25338559591045
      ],
      [
        "pre",
        -10.25422307178128
      ],
      [
        "▁decidiu",
        -10.254444961430424
      ],
      [
        "▁câncer",
        -10.255373933230302
      ],
      [
        "▁municipais",
        -10.255662741358153
      ],
      [
        "▁treinamento",
        -10.256515327848607
      ],
      [
        "▁tela",
        -10.256611373452238
      ],
      [
        "tic",
        -10.257071517418456
      ],
      [
        "▁procedimento",
        -10.257227480999738
      ],
      [
        "▁chegada",
        -10.25741947997961
      ],
      [
        "▁sessão",
        -10.258372001138662
      ],
      [
        "▁anunciou",
        -10.258452444315266
      ],
      [
        "▁expansão",
        -10.25958560201776
      ],
      [
        "▁científica",
        -10.259856137228889
      ],
      [
        "▁certamente",
        -10.26175068711136
      ],
      [
        "▁psdb",
        -10.262246955272005
      ],
      [
        "▁07",
        -10.26254299502473
      ],
      [
        "▁rápida",
        -10.262546994574116
      ],
      [
        "▁morreu",
        -10.262877413245608
      ],
      [
        "▁plantas",
        -10.264024167853808
      ],
      [
        "▁aspecto",
        -10.264277495297966
      ],
      [
        "▁perfil",
        -10.26507747925366
      ],
      [
        "▁alterações",
        -10.265089465973464
      ],
      [
        "▁músicas",
        -10.265367815971178
      ],
      [
        "▁orientação",
        -10.265497834446352
      ],
      [
        "▁federação",
        -10.265940103495712
      ],
      [
        "▁ideias",
        -10.265943818267171
      ],
      [
        "▁cidadãos",
        -10.266654404374895
      ],
      [
        "▁lojas",
        -10.266765946865156
      ],
      [
        "▁tradição",
        -10.267041536309856
      ],
      [
        "▁implantação",
        -10.267065682048994
      ],
      [
        "▁disposição",
        -10.2673661449419
      ],
      [
        "▁corrente",
        -10.267635665984436
      ],
      [
        "▁iria",
        -10.268586689939756
      ],
      [
        "▁japão",
        -10.268951968048206
      ],
      [
        "mit",
        -10.269048637719688
      ],
      [
        "▁possíveis",
        -10.26957687718731
      ],
      [
        "▁gosta",
        -10.26961354372644
      ],
      [
        "▁38",
        -10.269766918481745
      ],
      [
        "▁informa",
        -10.27040114518912
      ],
      [
        "▁complexo",
        -10.270764924150305
      ],
      [
        "bar",
        -10.271211399046386
      ],
      [
        "▁fiquei",
        -10.271911959837148
      ],
      [
        "▁pereira",
        -10.271955749094536
      ],
      [
        "▁breve",
        -10.272272710241207
      ],
      [
        "▁curto",
        -10.272371795820504
      ],
      [
        "▁nordeste",
        -10.272395586809898
      ],
      [
        "▁andré",
        -10.272705131094684
      ],
      [
        "▁atletas",
        -10.273801370794656
      ],
      [
        "▁professora",
        -10.27593264024815
      ],
      [
        "▁horizonte",
        -10.276619762610252
      ],
      [
        "▁desafio",
        -10.276794278519429
      ],
      [
        "▁imposto",
        -10.277324786205485
      ],
      [
        "▁cha",
        -10.277472814715956
      ],
      [
        "▁diagnóstico",
        -10.278025394239652
      ],
      [
        "▁inglaterra",
        -10.278098851732446
      ],
      [
        "▁acha",
        -10.27819345925512
      ],
      [
        "tre",
        -10.278212503148076
      ],
      [
        "▁estará",
        -10.280327572143216
      ],
      [
        "▁finalidade",
        -10.280447639900448
      ],
      [
        "▁cria",
        -10.282822984109847
      ],
      [
        "▁financiamento",
        -10.283003732923694
      ],
      [
        "▁regra",
        -10.2831765003051
      ],
      [
        "▁formato",
        -10.283267973620251
      ],
      [
        "pen",
        -10.283269067390888
      ],
      [
        "▁propósito",
        -10.283348056888094
      ],
      [
        "▁águas",
        -10.284416111753446
      ],
      [
        "▁terras",
        -10.284984396134732
      ],
      [
        "▁audiência",
        -10.285451277220682
      ],
      [
        "íveis",
        -10.285885807326292
      ],
      [
        "nha",
        -10.286046559720956
      ],
      [
        "▁ampla",
        -10.2863973104731
      ],
      [
        "▁conquista",
        -10.28641282738729
      ],
      [
        "▁benefício",
        -10.28696282086066
      ],
      [
        "▁espaços",
        -10.287310001891464
      ],
      [
        "▁semelhante",
        -10.287347804372834
      ],
      [
        "▁york",
        -10.28759597848904
      ],
      [
        "▁declaração",
        -10.287895262759776
      ],
      [
        "cent",
        -10.288267214999353
      ],
      [
        "▁estabelecer",
        -10.28827103173477
      ],
      [
        "▁new",
        -10.288615756834185
      ],
      [
        "▁ricardo",
        -10.288708745830652
      ],
      [
        "▁pesquisadores",
        -10.288885731259205
      ],
      [
        "▁domínio",
        -10.289595699372464
      ],
      [
        "▁jamais",
        -10.290051161492515
      ],
      [
        "▁preocupação",
        -10.29027874443307
      ],
      [
        "▁andar",
        -10.290542457522706
      ],
      [
        "▁ameaça",
        -10.291286336224973
      ],
      [
        "▁mon",
        -10.291384504044965
      ],
      [
        "cal",
        -10.29180136785265
      ],
      [
        "▁usada",
        -10.292491551318076
      ],
      [
        "▁2017",
        -10.292632442232795
      ],
      [
        "▁alemão",
        -10.294689877911186
      ],
      [
        "▁perspectiva",
        -10.29471789255333
      ],
      [
        "vas",
        -10.295042519315295
      ],
      [
        "▁histórias",
        -10.29543778564767
      ],
      [
        "▁justamente",
        -10.295557059999451
      ],
      [
        "▁primeiras",
        -10.295788293067131
      ],
      [
        "▁48",
        -10.296114063824426
      ],
      [
        "▁fluxo",
        -10.296648724919624
      ],
      [
        "▁atuais",
        -10.2978272210675
      ],
      [
        "▁daí",
        -10.298203620847724
      ],
      [
        "▁desenvolvido",
        -10.298325792756318
      ],
      [
        "▁composta",
        -10.298348281053476
      ],
      [
        "▁cama",
        -10.29840813536871
      ],
      [
        "▁religião",
        -10.299858415754642
      ],
      [
        "▁liderança",
        -10.29992624099814
      ],
      [
        "▁informou",
        -10.300134118363674
      ],
      [
        "▁entendimento",
        -10.300234096167898
      ],
      [
        "▁prazer",
        -10.300268375996312
      ],
      [
        "▁visando",
        -10.30120106742474
      ],
      [
        "▁naquela",
        -10.302262645653348
      ],
      [
        "▁alvo",
        -10.302816341392427
      ],
      [
        "▁defender",
        -10.303546256827758
      ],
      [
        "▁importa",
        -10.303728324981286
      ],
      [
        "▁permitir",
        -10.304126928925069
      ],
      [
        "▁chave",
        -10.304836582534088
      ],
      [
        "▁seriam",
        -10.30661632871973
      ],
      [
        "▁kg",
        -10.306890017483486
      ],
      [
        "▁estreia",
        -10.307000259339732
      ],
      [
        "▁motivos",
        -10.307699703324763
      ],
      [
        "▁gás",
        -10.30794741696128
      ],
      [
        "▁sabia",
        -10.308304311069104
      ],
      [
        "log",
        -10.3091689031218
      ],
      [
        "▁produtores",
        -10.310575764727483
      ],
      [
        "▁transferência",
        -10.310762237769406
      ],
      [
        "▁mel",
        -10.312597754452248
      ],
      [
        "▁deficiência",
        -10.31279074841382
      ],
      [
        "▁dívida",
        -10.31474956119411
      ],
      [
        "▁destaca",
        -10.317081570667728
      ],
      [
        "▁oportunidades",
        -10.317518550735748
      ],
      [
        "bro",
        -10.318244852832516
      ],
      [
        "▁enfrentar",
        -10.318451616323111
      ],
      [
        "▁tarefa",
        -10.31865148529652
      ],
      [
        "▁itens",
        -10.31979384832009
      ],
      [
        "▁vantagem",
        -10.320252545690092
      ],
      [
        "▁núcleo",
        -10.320405135987976
      ],
      [
        "▁dúvidas",
        -10.320486779936902
      ],
      [
        "▁42",
        -10.320985510669235
      ],
      [
        "▁pedra",
        -10.321217362320407
      ],
      [
        "▁utilizando",
        -10.321750182324148
      ],
      [
        "cur",
        -10.322512363655798
      ],
      [
        "▁souza",
        -10.324291250093038
      ],
      [
        "▁alcançar",
        -10.3244804880884
      ],
      [
        "lic",
        -10.32451251316136
      ],
      [
        "ncia",
        -10.324669138223973
      ],
      [
        "▁mail",
        -10.324899121160051
      ],
      [
        "▁terão",
        -10.325126359932394
      ],
      [
        "▁resolver",
        -10.32601120647871
      ],
      [
        "▁cadeia",
        -10.326605791592524
      ],
      [
        "gado",
        -10.326609563725617
      ],
      [
        "▁poderiam",
        -10.326813075532048
      ],
      [
        "▁palco",
        -10.327014173830523
      ],
      [
        "▁estudar",
        -10.327459436257056
      ],
      [
        "▁utilizados",
        -10.327497445972451
      ],
      [
        "▁assumir",
        -10.327642893043109
      ],
      [
        "▁apresentam",
        -10.327910867178463
      ],
      [
        "tura",
        -10.328609927934307
      ],
      [
        "▁quiser",
        -10.328785953255002
      ],
      [
        "▁prestação",
        -10.328901537711852
      ],
      [
        "▁parecer",
        -10.329024624037828
      ],
      [
        "▁bancos",
        -10.329033550911417
      ],
      [
        "▁tiver",
        -10.329182441397112
      ],
      [
        "tin",
        -10.329343375980107
      ],
      [
        "pla",
        -10.330870266537524
      ],
      [
        "▁entra",
        -10.332029470258638
      ],
      [
        "▁atitude",
        -10.332373749646989
      ],
      [
        "▁fortes",
        -10.333056318786682
      ],
      [
        "▁acompanhar",
        -10.333569172652624
      ],
      [
        "▁lançou",
        -10.334353362669084
      ],
      [
        "▁católica",
        -10.334474865655872
      ],
      [
        "▁bolsa",
        -10.334777802807602
      ],
      [
        "col",
        -10.33531257591302
      ],
      [
        "▁querer",
        -10.3354050862228
      ],
      [
        "▁coleta",
        -10.335611987695312
      ],
      [
        "tina",
        -10.335726195881596
      ],
      [
        "▁rodada",
        -10.336094673055058
      ],
      [
        "▁atriz",
        -10.33622116882626
      ],
      [
        "▁atua",
        -10.336445772496344
      ],
      [
        "▁ponte",
        -10.336627819678291
      ],
      [
        "▁passada",
        -10.336695983511516
      ],
      [
        "▁aliás",
        -10.336730826457543
      ],
      [
        "▁palácio",
        -10.336784783567474
      ],
      [
        "▁leitor",
        -10.33749684775478
      ],
      [
        "▁partidos",
        -10.337726037214605
      ],
      [
        "▁vítimas",
        -10.337952401278816
      ],
      [
        "▁máquina",
        -10.338614993539531
      ],
      [
        "▁oficiais",
        -10.338659789565815
      ],
      [
        "▁notícias",
        -10.338893458632269
      ],
      [
        "▁sequência",
        -10.338947875605925
      ],
      [
        "▁permanente",
        -10.339624471329898
      ],
      [
        "▁comer",
        -10.340617025935112
      ],
      [
        "▁graça",
        -10.34105601201774
      ],
      [
        "lha",
        -10.342068767772917
      ],
      [
        "▁petróleo",
        -10.343580143856144
      ],
      [
        "tica",
        -10.343598465706991
      ],
      [
        "▁39",
        -10.344215401007869
      ],
      [
        "▁capa",
        -10.344255919859783
      ],
      [
        "▁minhas",
        -10.34443496192526
      ],
      [
        "▁web",
        -10.344932031554594
      ],
      [
        "▁utilizada",
        -10.345108157936057
      ],
      [
        "▁cargos",
        -10.345128394120357
      ],
      [
        "▁chance",
        -10.345155895329723
      ],
      [
        "▁cumprimento",
        -10.34522044552836
      ],
      [
        "▁serve",
        -10.34538745769723
      ],
      [
        "▁riscos",
        -10.345945555551056
      ],
      [
        "▁latina",
        -10.346442290251805
      ],
      [
        "▁adolescentes",
        -10.346616746936188
      ],
      [
        "▁judicial",
        -10.346693541997883
      ],
      [
        "▁ve",
        -10.346834483268092
      ],
      [
        "lis",
        -10.347516192915135
      ],
      [
        "▁vencer",
        -10.347598742873934
      ],
      [
        "▁inteiro",
        -10.34772857102245
      ],
      [
        "▁piloto",
        -10.348318858203978
      ],
      [
        "▁marcelo",
        -10.348907241361305
      ],
      [
        "ível",
        -10.349194474699006
      ],
      [
        "▁antonio",
        -10.34968989149257
      ],
      [
        "▁relacionados",
        -10.349950899593106
      ],
      [
        "▁cuidados",
        -10.35096124194737
      ],
      [
        "▁deseja",
        -10.351330926922843
      ],
      [
        "▁composição",
        -10.353040391673822
      ],
      [
        "▁negro",
        -10.35346929913452
      ],
      [
        "▁roupas",
        -10.353910243224238
      ],
      [
        "▁celular",
        -10.354129998489253
      ],
      [
        "▁cobertura",
        -10.354574645177468
      ],
      [
        "▁transmissão",
        -10.355168236690918
      ],
      [
        "▁chamar",
        -10.355731413730098
      ],
      [
        "▁conflito",
        -10.35580826832414
      ],
      [
        "▁podia",
        -10.35731564077817
      ],
      [
        "▁infância",
        -10.35735518208488
      ],
      [
        "▁estrela",
        -10.358549723919458
      ],
      [
        "▁judiciário",
        -10.358604281894758
      ],
      [
        "▁supremo",
        -10.359111088395396
      ],
      [
        "▁ferreira",
        -10.359673744481864
      ],
      [
        "▁torneio",
        -10.359705330394414
      ],
      [
        "▁gerar",
        -10.359825453121164
      ],
      [
        "▁comunidades",
        -10.36012160037067
      ],
      [
        "▁avaliar",
        -10.360557871499305
      ],
      [
        "▁estabelecimento",
        -10.360580563145584
      ],
      [
        "▁universal",
        -10.360781570780562
      ],
      [
        "▁analisar",
        -10.361638974473276
      ],
      [
        "▁homenagem",
        -10.361759337930735
      ],
      [
        "▁conceitos",
        -10.361961435318763
      ],
      [
        "▁portal",
        -10.362156723778266
      ],
      [
        "▁fator",
        -10.363136415521517
      ],
      [
        "▁norma",
        -10.36431773584321
      ],
      [
        "▁val",
        -10.36481411277988
      ],
      [
        "vin",
        -10.365077057894498
      ],
      [
        "▁juntos",
        -10.365718245378655
      ],
      [
        "▁pessoais",
        -10.368113423479924
      ],
      [
        "▁servir",
        -10.368753391900322
      ],
      [
        "▁empresário",
        -10.370597240284036
      ],
      [
        "▁realizou",
        -10.371325881727254
      ],
      [
        "▁revela",
        -10.373128263397245
      ],
      [
        "▁aberta",
        -10.37320303974628
      ],
      [
        "▁facto",
        -10.373215055813432
      ],
      [
        "▁tenta",
        -10.37360866627724
      ],
      [
        "▁neto",
        -10.373946851144664
      ],
      [
        "▁doutrina",
        -10.37401486974484
      ],
      [
        "▁procurar",
        -10.37471724527302
      ],
      [
        "▁instrumentos",
        -10.375505137468242
      ],
      [
        "gan",
        -10.375592171954024
      ],
      [
        "▁composto",
        -10.375675770521022
      ],
      [
        "▁discutir",
        -10.37698066074181
      ],
      [
        "▁editora",
        -10.377339321065048
      ],
      [
        "▁fr",
        -10.377981262956837
      ],
      [
        "▁marcas",
        -10.379940945493413
      ],
      [
        "▁honra",
        -10.380045396945349
      ],
      [
        "▁roma",
        -10.38039369389184
      ],
      [
        "▁passam",
        -10.380440000256112
      ],
      [
        "▁mudou",
        -10.380829862306133
      ],
      [
        "▁escritor",
        -10.38084902243913
      ],
      [
        "▁prevenção",
        -10.381590616067124
      ],
      [
        "▁jurídico",
        -10.381890296023007
      ],
      [
        "▁ficando",
        -10.38191143861533
      ],
      [
        "▁notícia",
        -10.382552539482957
      ],
      [
        "▁cumprir",
        -10.382584460731357
      ],
      [
        "ura",
        -10.382630415552748
      ],
      [
        "▁elaboração",
        -10.382756729299368
      ],
      [
        "▁equipa",
        -10.38342074886433
      ],
      [
        "▁venceu",
        -10.384680538749429
      ],
      [
        "tão",
        -10.38506376504459
      ],
      [
        "▁iniciou",
        -10.385127823722454
      ],
      [
        "▁esperar",
        -10.386178176879683
      ],
      [
        "▁sinais",
        -10.386466657092496
      ],
      [
        "▁depende",
        -10.3870933103692
      ],
      [
        "lan",
        -10.387441048985435
      ],
      [
        "▁dólares",
        -10.387830863477957
      ],
      [
        "▁pen",
        -10.388415443960444
      ],
      [
        "▁respectivamente",
        -10.388917735268365
      ],
      [
        "▁definir",
        -10.389143058932875
      ],
      [
        "▁nele",
        -10.389168635383731
      ],
      [
        "pac",
        -10.389184554950434
      ],
      [
        "▁formada",
        -10.390131966347344
      ],
      [
        "▁cheio",
        -10.39014549585583
      ],
      [
        "▁representante",
        -10.390501799396686
      ],
      [
        "▁calor",
        -10.390925451792135
      ],
      [
        "ice",
        -10.39127258338367
      ],
      [
        "▁moderna",
        -10.391619059137437
      ],
      [
        "▁vinte",
        -10.391768925016107
      ],
      [
        "▁1997",
        -10.392940204525518
      ],
      [
        "▁poli",
        -10.39297358054796
      ],
      [
        "▁médica",
        -10.39343310092374
      ],
      [
        "tua",
        -10.393832070204049
      ],
      [
        "▁ocorrer",
        -10.39416170207616
      ],
      [
        "▁começaram",
        -10.394680828161718
      ],
      [
        "▁circuito",
        -10.394939363171876
      ],
      [
        "▁juventude",
        -10.395160529596966
      ],
      [
        "▁chuva",
        -10.395837154065898
      ],
      [
        "▁mag",
        -10.395967632454806
      ],
      [
        "▁gerente",
        -10.395989084562686
      ],
      [
        "▁comitê",
        -10.396253469330029
      ],
      [
        "▁comerciais",
        -10.396988789884452
      ],
      [
        "▁infraestrutura",
        -10.39816493355283
      ],
      [
        "▁indica",
        -10.399275193385268
      ],
      [
        "▁canto",
        -10.39956430327028
      ],
      [
        "▁encontram",
        -10.39978737797566
      ],
      [
        "▁identificação",
        -10.399794054978742
      ],
      [
        "▁atuar",
        -10.400304771232012
      ],
      [
        "▁representação",
        -10.400458708787758
      ],
      [
        "str",
        -10.400914077406217
      ],
      [
        "▁sensação",
        -10.40140262797522
      ],
      [
        "▁espiritual",
        -10.402590424905789
      ],
      [
        "▁cartão",
        -10.40276155077765
      ],
      [
        "▁inteligência",
        -10.403510561855215
      ],
      [
        "▁fossem",
        -10.403920991848985
      ],
      [
        "▁marcos",
        -10.403958269705342
      ],
      [
        "▁dada",
        -10.404219812937257
      ],
      [
        "▁cirurgia",
        -10.40436537135698
      ],
      [
        "▁planta",
        -10.404471444951136
      ],
      [
        "▁intervenção",
        -10.405005959164663
      ],
      [
        "▁legislativa",
        -10.405210198633124
      ],
      [
        "▁infelizmente",
        -10.405258335918496
      ],
      [
        "▁despesas",
        -10.405261635959576
      ],
      [
        "▁1996",
        -10.4054443828694
      ],
      [
        "ong",
        -10.40559882890963
      ],
      [
        "▁titular",
        -10.405872549064147
      ],
      [
        "▁londres",
        -10.405938005858538
      ],
      [
        "▁chão",
        -10.405963491520714
      ],
      [
        "▁terreno",
        -10.40598141333302
      ],
      [
        "▁líderes",
        -10.406075446862127
      ],
      [
        "▁considera",
        -10.406447273262527
      ],
      [
        "cion",
        -10.406738623983758
      ],
      [
        "▁concentração",
        -10.407272363041312
      ],
      [
        "▁próprias",
        -10.407868415176054
      ],
      [
        "▁interpretação",
        -10.408286925467994
      ],
      [
        "▁viva",
        -10.409271078468011
      ],
      [
        "▁golpe",
        -10.409353700212794
      ],
      [
        "mor",
        -10.40956539002342
      ],
      [
        "▁província",
        -10.410116872444387
      ],
      [
        "▁compreensão",
        -10.410939440293646
      ],
      [
        "bin",
        -10.411050915471044
      ],
      [
        "▁pediu",
        -10.411073708678956
      ],
      [
        "▁testes",
        -10.412557144997091
      ],
      [
        "▁tradicionais",
        -10.412900059273191
      ],
      [
        "▁pop",
        -10.412946795751685
      ],
      [
        "▁deverão",
        -10.413693913255988
      ],
      [
        "pol",
        -10.413805363221776
      ],
      [
        "▁ganha",
        -10.41402646302912
      ],
      [
        "▁critérios",
        -10.4142498955937
      ],
      [
        "▁acabar",
        -10.414356249101498
      ],
      [
        "▁chegando",
        -10.4146315619998
      ],
      [
        "▁inovação",
        -10.415178224274158
      ],
      [
        "ant",
        -10.415325424492517
      ],
      [
        "▁prédio",
        -10.415775424084767
      ],
      [
        "▁sentença",
        -10.416067884531987
      ],
      [
        "▁sabemos",
        -10.41614917840362
      ],
      [
        "▁sorte",
        -10.416345893016516
      ],
      [
        "▁contribuição",
        -10.416399334696822
      ],
      [
        "▁xx",
        -10.416419224494854
      ],
      [
        "▁lembra",
        -10.416527286723737
      ],
      [
        "▁especialistas",
        -10.416529587756756
      ],
      [
        "▁44",
        -10.416778595979164
      ],
      [
        "▁sabem",
        -10.417005383837862
      ],
      [
        "▁ética",
        -10.417016873999216
      ],
      [
        "capazes",
        -10.418004987938428
      ],
      [
        "▁coordenador",
        -10.418190637372252
      ],
      [
        "ific",
        -10.419429351730791
      ],
      [
        "▁mantém",
        -10.41946672636233
      ],
      [
        "int",
        -10.419468725234456
      ],
      [
        "▁bio",
        -10.420518674687637
      ],
      [
        "▁realizados",
        -10.420913401312989
      ],
      [
        "▁frio",
        -10.421136090834002
      ],
      [
        "▁tentando",
        -10.421174573435538
      ],
      [
        "▁existentes",
        -10.421236062313024
      ],
      [
        "▁competência",
        -10.421787416908597
      ],
      [
        "nci",
        -10.42274654059762
      ],
      [
        "▁devemos",
        -10.422771120036352
      ],
      [
        "▁quilômetros",
        -10.422924330905913
      ],
      [
        "▁estúdio",
        -10.42352977684702
      ],
      [
        "▁residência",
        -10.423698357180497
      ],
      [
        "gas",
        -10.424018774262684
      ],
      [
        "▁anteriormente",
        -10.42439373793604
      ],
      [
        "▁disciplina",
        -10.42454635655164
      ],
      [
        "▁consiste",
        -10.425441310882418
      ],
      [
        "▁conhecimentos",
        -10.425650064767826
      ],
      [
        "▁carvalho",
        -10.426181159674815
      ],
      [
        "▁básica",
        -10.4263745801552
      ],
      [
        "▁consumidores",
        -10.426486720386055
      ],
      [
        "reg",
        -10.426722073272977
      ],
      [
        "▁jornada",
        -10.42675386946122
      ],
      [
        "▁software",
        -10.427161559683189
      ],
      [
        "▁pau",
        -10.42755513350314
      ],
      [
        "▁estaduais",
        -10.427721785423282
      ],
      [
        "▁erros",
        -10.427879066733574
      ],
      [
        "nça",
        -10.42827621959254
      ],
      [
        "port",
        -10.428300617375452
      ],
      [
        "▁essencial",
        -10.428791716634825
      ],
      [
        "▁colegas",
        -10.428881085898738
      ],
      [
        "▁41",
        -10.42946523640185
      ],
      [
        "▁her",
        -10.429803943186547
      ],
      [
        "▁antigos",
        -10.430460702654704
      ],
      [
        "▁1980",
        -10.431506044876478
      ],
      [
        "▁turma",
        -10.431590801903862
      ],
      [
        "▁pés",
        -10.43178046570364
      ],
      [
        "▁irmã",
        -10.432836866880134
      ],
      [
        "▁equilíbrio",
        -10.433381921754098
      ],
      [
        "▁colégio",
        -10.433727143552868
      ],
      [
        "▁vereadores",
        -10.433871847864197
      ],
      [
        "▁manda",
        -10.433959743632387
      ],
      [
        "▁elenco",
        -10.434175591052036
      ],
      [
        "ff",
        -10.43498176076108
      ],
      [
        "▁david",
        -10.435526768001038
      ],
      [
        "▁comparação",
        -10.4359708739047
      ],
      [
        "▁bal",
        -10.43613237140966
      ],
      [
        "▁adolescente",
        -10.436674219698888
      ],
      [
        "▁melhoria",
        -10.437364091925762
      ],
      [
        "ral",
        -10.437643076574531
      ],
      [
        "ária",
        -10.437745321218028
      ],
      [
        "▁catarina",
        -10.437769234311562
      ],
      [
        "▁críticas",
        -10.438291287593806
      ],
      [
        "▁roteiro",
        -10.438337911394653
      ],
      [
        "▁cair",
        -10.438571209003292
      ],
      [
        "▁trabalhando",
        -10.438773450578797
      ],
      [
        "▁impostos",
        -10.439686581224986
      ],
      [
        "eiros",
        -10.43996647462838
      ],
      [
        "▁dono",
        -10.440021798646798
      ],
      [
        "▁descobrir",
        -10.440352430511057
      ],
      [
        "▁padre",
        -10.440736310193104
      ],
      [
        "▁tecnologias",
        -10.440815215009469
      ],
      [
        "▁padrões",
        -10.440963224717706
      ],
      [
        "▁ferramentas",
        -10.44144138236024
      ],
      [
        "▁paga",
        -10.441523658453734
      ],
      [
        "▁2018",
        -10.441814548855236
      ],
      [
        "▁comida",
        -10.441890722981084
      ],
      [
        "ins",
        -10.442045041502888
      ],
      [
        "▁compreender",
        -10.443041103830096
      ],
      [
        "▁alternativa",
        -10.443590066998494
      ],
      [
        "▁mac",
        -10.444321262532243
      ],
      [
        "gue",
        -10.444520449670234
      ],
      [
        "▁43",
        -10.445046602665904
      ],
      [
        "▁clubes",
        -10.445133928546058
      ],
      [
        "▁imediatamente",
        -10.445168563883648
      ],
      [
        "▁contribuir",
        -10.44549107605824
      ],
      [
        "▁ativa",
        -10.446573784646985
      ],
      [
        "▁ficaram",
        -10.446661461279014
      ],
      [
        "▁cozinha",
        -10.44673072555963
      ],
      [
        "▁destacou",
        -10.447001389261624
      ],
      [
        "▁produtor",
        -10.447330844689263
      ],
      [
        "▁contratos",
        -10.447392081587576
      ],
      [
        "▁pobres",
        -10.447811944121186
      ],
      [
        "rin",
        -10.447859289195604
      ],
      [
        "▁alves",
        -10.448068765916082
      ],
      [
        "▁exploração",
        -10.448785323785238
      ],
      [
        "▁salários",
        -10.448854483330322
      ],
      [
        "▁cá",
        -10.449219957548522
      ],
      [
        "▁gu",
        -10.450226819743476
      ],
      [
        "▁pista",
        -10.450278797753535
      ],
      [
        "▁ferramenta",
        -10.450411826435412
      ],
      [
        "▁produzido",
        -10.450570124212012
      ],
      [
        "▁passe",
        -10.451667967612492
      ],
      [
        "▁olha",
        -10.451889062850466
      ],
      [
        "▁responder",
        -10.452424281018004
      ],
      [
        "nic",
        -10.453274055108135
      ],
      [
        "▁métodos",
        -10.453402225136427
      ],
      [
        "▁alerta",
        -10.453703247783846
      ],
      [
        "▁elemento",
        -10.45375662812488
      ],
      [
        "▁poderes",
        -10.45381633182168
      ],
      [
        "▁rol",
        -10.454141324677348
      ],
      [
        "nho",
        -10.454248065498914
      ],
      [
        "▁men",
        -10.45437568498541
      ],
      [
        "▁fórmula",
        -10.454419322876292
      ],
      [
        "▁gastos",
        -10.454458977585864
      ],
      [
        "▁endereço",
        -10.454560720904958
      ],
      [
        "▁significativa",
        -10.454854654325109
      ],
      [
        "▁propaganda",
        -10.45498755947717
      ],
      [
        "mica",
        -10.455210006992855
      ],
      [
        "▁brasileiras",
        -10.455293911702478
      ],
      [
        "tinho",
        -10.455769061378628
      ],
      [
        "▁vejo",
        -10.456082203190745
      ],
      [
        "▁coloca",
        -10.45649300744834
      ],
      [
        "▁explicar",
        -10.458261826045128
      ],
      [
        "▁plataforma",
        -10.458639898253209
      ],
      [
        "▁significado",
        -10.45906873541776
      ],
      [
        "▁rússia",
        -10.459108413914452
      ],
      [
        "▁observar",
        -10.459291707958307
      ],
      [
        "▁aprendizagem",
        -10.45937519932639
      ],
      [
        "▁perante",
        -10.459979368045122
      ],
      [
        "▁considerar",
        -10.460906230984955
      ],
      [
        "▁cedo",
        -10.461211085660128
      ],
      [
        "▁federais",
        -10.46183067606966
      ],
      [
        "▁far",
        -10.462060856374668
      ],
      [
        "▁sentimento",
        -10.462449660071725
      ],
      [
        "▁tratado",
        -10.462465387517442
      ],
      [
        "▁seca",
        -10.462964260525917
      ],
      [
        "▁envolvidos",
        -10.463101462130483
      ],
      [
        "▁visa",
        -10.46326913293964
      ],
      [
        "▁integrantes",
        -10.463406225913296
      ],
      [
        "▁frequência",
        -10.463485132208598
      ],
      [
        "▁flores",
        -10.464080057089756
      ],
      [
        "▁aceita",
        -10.464390403655202
      ],
      [
        "▁esquema",
        -10.464439672189036
      ],
      [
        "▁privada",
        -10.465496293250832
      ],
      [
        "▁arquitetura",
        -10.46593774973435
      ],
      [
        "▁flor",
        -10.466060870263874
      ],
      [
        "▁mau",
        -10.466117900971424
      ],
      [
        "▁haviam",
        -10.466420511317592
      ],
      [
        "▁redor",
        -10.466698193660584
      ],
      [
        "▁record",
        -10.46675514509318
      ],
      [
        "▁cantora",
        -10.466904475433886
      ],
      [
        "▁inclusão",
        -10.467771744262606
      ],
      [
        "▁camisa",
        -10.46782665069327
      ],
      [
        "emos",
        -10.468095720934354
      ],
      [
        "▁auxiliar",
        -10.468627478290344
      ],
      [
        "▁inc",
        -10.468838334505255
      ],
      [
        "zz",
        -10.469007622966382
      ],
      [
        "▁urbana",
        -10.469131962609286
      ],
      [
        "▁gomes",
        -10.469181904944246
      ],
      [
        "▁derrota",
        -10.46967761054969
      ],
      [
        "▁gols",
        -10.470807988674196
      ],
      [
        "▁razões",
        -10.471018519814304
      ],
      [
        "▁mesmas",
        -10.47112640412332
      ],
      [
        "cida",
        -10.47124182443432
      ],
      [
        "▁paul",
        -10.471551795528304
      ],
      [
        "▁necessários",
        -10.473231641966636
      ],
      [
        "▁envolvendo",
        -10.473494785833724
      ],
      [
        "▁aquisição",
        -10.4740635520596
      ],
      [
        "▁75",
        -10.474127081755816
      ],
      [
        "▁ambientais",
        -10.474250043717326
      ],
      [
        "tem",
        -10.474686058502996
      ],
      [
        "▁aquelas",
        -10.475115207693616
      ],
      [
        "▁diferenças",
        -10.476098648305172
      ],
      [
        "▁porte",
        -10.476346884306183
      ],
      [
        "cop",
        -10.476462757533742
      ],
      [
        "▁tomada",
        -10.476577521430588
      ],
      [
        "▁pegar",
        -10.4776418582134
      ],
      [
        "▁conferência",
        -10.477821707544432
      ],
      [
        "▁páginas",
        -10.478164891823171
      ],
      [
        "▁excesso",
        -10.478173476894751
      ],
      [
        "▁http",
        -10.478501908892667
      ],
      [
        "▁duração",
        -10.47856771572049
      ],
      [
        "▁rodrigues",
        -10.478733076574768
      ],
      [
        "▁eficiência",
        -10.478803489090469
      ],
      [
        "▁populares",
        -10.478985547483004
      ],
      [
        "▁pronto",
        -10.479164164223228
      ],
      [
        "▁ótimo",
        -10.480322039037238
      ],
      [
        "▁comandante",
        -10.480439463102549
      ],
      [
        "▁samba",
        -10.480806990416555
      ],
      [
        "▁aparelho",
        -10.481463963064517
      ],
      [
        "▁1995",
        -10.48171693656703
      ],
      [
        "▁usados",
        -10.482158283696222
      ],
      [
        "▁55",
        -10.482724893030271
      ],
      [
        "▁milhão",
        -10.482771798372578
      ],
      [
        "▁impossível",
        -10.482984468244515
      ],
      [
        "▁aeroporto",
        -10.484757774831394
      ],
      [
        "▁surgiu",
        -10.485179157982408
      ],
      [
        "▁conhece",
        -10.485306086618396
      ],
      [
        "▁romance",
        -10.48530620835194
      ],
      [
        "▁47",
        -10.485346911933346
      ],
      [
        "▁verificar",
        -10.486012490549763
      ],
      [
        "▁hipótese",
        -10.486410056063814
      ],
      [
        "▁expectativa",
        -10.486682494622064
      ],
      [
        "▁400",
        -10.4868529453659
      ],
      [
        "▁transformar",
        -10.487181315160589
      ],
      [
        "▁velha",
        -10.487494296027124
      ],
      [
        "▁jornais",
        -10.48781120463912
      ],
      [
        "can",
        -10.489245869073285
      ],
      [
        "▁vindo",
        -10.489471756511628
      ],
      [
        "▁assistir",
        -10.48986626628726
      ],
      [
        "▁finais",
        -10.489903980217491
      ],
      [
        "▁especialista",
        -10.49039238805107
      ],
      [
        "▁dona",
        -10.490725973614111
      ],
      [
        "cy",
        -10.491108045402084
      ],
      [
        "▁encontrado",
        -10.491357213820129
      ],
      [
        "▁autorização",
        -10.491676874896871
      ],
      [
        "▁quebra",
        -10.49173163350795
      ],
      [
        "▁famoso",
        -10.493166717382802
      ],
      [
        "▁acerca",
        -10.493525597553
      ],
      [
        "▁estaria",
        -10.49356797365009
      ],
      [
        "▁imóvel",
        -10.493677429602586
      ],
      [
        "▁unido",
        -10.493684017724572
      ],
      [
        "▁publicada",
        -10.494320548433103
      ],
      [
        "▁estabelece",
        -10.494417762297171
      ],
      [
        "▁personalidade",
        -10.494640563694716
      ],
      [
        "▁portas",
        -10.495143110352457
      ],
      [
        "▁ligação",
        -10.495302137220907
      ],
      [
        "▁perfeito",
        -10.49536694275162
      ],
      [
        "▁crescente",
        -10.495579343835646
      ],
      [
        "sion",
        -10.495748544738928
      ],
      [
        "▁sintomas",
        -10.496012700119582
      ],
      [
        "▁cento",
        -10.49615071539312
      ],
      [
        "line",
        -10.496893142413583
      ],
      [
        "▁explicou",
        -10.497492134452305
      ],
      [
        "▁daqueles",
        -10.497532338039434
      ],
      [
        "▁contratação",
        -10.498622428984737
      ],
      [
        "▁ju",
        -10.498973111521934
      ],
      [
        "▁eletrônico",
        -10.499297927644523
      ],
      [
        "ker",
        -10.499653876978735
      ],
      [
        "▁postura",
        -10.49974297769716
      ],
      [
        "▁trouxe",
        -10.500137544571782
      ],
      [
        "▁mai",
        -10.502081844628629
      ],
      [
        "▁turno",
        -10.502479866786132
      ],
      [
        "▁necessárias",
        -10.502582794526102
      ],
      [
        "▁achei",
        -10.50296628074109
      ],
      [
        "▁top",
        -10.503242210514651
      ],
      [
        "mic",
        -10.503619519604182
      ],
      [
        "▁independência",
        -10.503768028216127
      ],
      [
        "▁miguel",
        -10.50404400535013
      ],
      [
        "▁envolve",
        -10.504193741609544
      ],
      [
        "▁agenda",
        -10.504259939836247
      ],
      [
        "▁zero",
        -10.504592534293812
      ],
      [
        "▁açúcar",
        -10.504681818566487
      ],
      [
        "▁avanço",
        -10.504760400522198
      ],
      [
        "indi",
        -10.50533182225722
      ],
      [
        "▁máxima",
        -10.505525884396548
      ],
      [
        "@",
        -10.50565981316054
      ],
      [
        "▁dieta",
        -10.50607812830799
      ],
      [
        "▁aceitar",
        -10.506096163492732
      ],
      [
        "▁multi",
        -10.506609182936833
      ],
      [
        "▁ocorrido",
        -10.506756913977084
      ],
      [
        "▁legais",
        -10.507069112111209
      ],
      [
        "▁1994",
        -10.507764528883984
      ],
      [
        "▁previsto",
        -10.508115198665232
      ],
      [
        "▁nação",
        -10.508427279590167
      ],
      [
        "▁novela",
        -10.50876162877834
      ],
      [
        "▁segmento",
        -10.509044964223566
      ],
      [
        "▁pensando",
        -10.509943076545
      ],
      [
        "nada",
        -10.51098147836534
      ],
      [
        "▁indo",
        -10.511320023948072
      ],
      [
        "▁olho",
        -10.511671836954664
      ],
      [
        "▁metal",
        -10.5118721209309
      ],
      [
        "▁advogados",
        -10.512633682084124
      ],
      [
        "▁categorias",
        -10.512950272858118
      ],
      [
        "▁pq",
        -10.514957091518466
      ],
      [
        "▁morto",
        -10.515490306807958
      ],
      [
        "▁masculino",
        -10.51681814176806
      ],
      [
        "▁correto",
        -10.518194077143098
      ],
      [
        "▁cidadania",
        -10.518215190243412
      ],
      [
        "▁limpeza",
        -10.518289209335409
      ],
      [
        "▁lixo",
        -10.518414912323085
      ],
      [
        "▁histórica",
        -10.518534835976933
      ],
      [
        "▁coluna",
        -10.51915587570134
      ],
      [
        "▁capítulo",
        -10.52062263790726
      ],
      [
        "▁diálogo",
        -10.520797053291574
      ],
      [
        "▁associados",
        -10.521634313880304
      ],
      [
        "▁consigo",
        -10.522229468235544
      ],
      [
        "har",
        -10.522236934964576
      ],
      [
        "tico",
        -10.522908541339028
      ],
      [
        "▁150",
        -10.523060355563944
      ],
      [
        "▁poucas",
        -10.523642886404708
      ],
      [
        "ign",
        -10.52366596382641
      ],
      [
        "▁faria",
        -10.523670642883094
      ],
      [
        "▁nela",
        -10.524112000176322
      ],
      [
        "▁realiza",
        -10.524627120311004
      ],
      [
        "▁constitui",
        -10.524926635152058
      ],
      [
        "▁fiscalização",
        -10.525264075155876
      ],
      [
        "▁assinatura",
        -10.525311446775204
      ],
      [
        "▁ref",
        -10.525679342131252
      ],
      [
        "▁adultos",
        -10.525855679905408
      ],
      [
        "▁fundamentais",
        -10.526013459900138
      ],
      [
        "▁colocado",
        -10.526829278956152
      ],
      [
        "▁mostram",
        -10.52724933719376
      ],
      [
        "▁ambas",
        -10.527838907701833
      ],
      [
        "▁wi",
        -10.528145266189364
      ],
      [
        "pri",
        -10.528148964376369
      ],
      [
        "dinho",
        -10.528560034201693
      ],
      [
        "▁ocorrência",
        -10.529493165096966
      ],
      [
        "▁clássico",
        -10.529748996158288
      ],
      [
        "▁anual",
        -10.529749116352336
      ],
      [
        "▁46",
        -10.530840526418862
      ],
      [
        "▁rj",
        -10.531091997087506
      ],
      [
        "▁expressa",
        -10.531236389206546
      ],
      [
        "▁estende",
        -10.532867494762836
      ],
      [
        "▁deveriam",
        -10.533020805471033
      ],
      [
        "▁tantas",
        -10.533031864335523
      ],
      [
        "▁integral",
        -10.533176561106606
      ],
      [
        "gia",
        -10.533555354071217
      ],
      [
        "▁1970",
        -10.534466854760126
      ],
      [
        "▁merece",
        -10.53449806247379
      ],
      [
        "▁dicas",
        -10.534723832058834
      ],
      [
        "lia",
        -10.534931748230123
      ],
      [
        "▁seguindo",
        -10.535414164091776
      ],
      [
        "▁sustentável",
        -10.536739538220964
      ],
      [
        "▁bela",
        -10.537898984329043
      ],
      [
        "▁surpresa",
        -10.538450189354212
      ],
      [
        "elli",
        -10.53899074147825
      ],
      [
        "▁comigo",
        -10.539265562175128
      ],
      [
        "▁acompanhamento",
        -10.53930588811253
      ],
      [
        "▁carioca",
        -10.539613007179396
      ],
      [
        "▁parlamentar",
        -10.539935836993582
      ],
      [
        "▁determinada",
        -10.540599843770783
      ],
      [
        "mba",
        -10.540736389970654
      ],
      [
        "▁específico",
        -10.541759265248729
      ],
      [
        "▁externa",
        -10.541768161722286
      ],
      [
        "▁tele",
        -10.541846113602766
      ],
      [
        "▁escritório",
        -10.54187910342812
      ],
      [
        "aria",
        -10.541893285587594
      ],
      [
        "▁facebook",
        -10.541931668244306
      ],
      [
        "▁custa",
        -10.541937812503951
      ],
      [
        "▁bandeira",
        -10.541943768637111
      ],
      [
        "▁treinador",
        -10.542123806743364
      ],
      [
        "▁conflitos",
        -10.54214468142326
      ],
      [
        "▁obrigado",
        -10.542231670629398
      ],
      [
        "▁caiu",
        -10.54227928547142
      ],
      [
        "▁reação",
        -10.542452518657855
      ],
      [
        "▁investir",
        -10.542623811576512
      ],
      [
        "▁desenho",
        -10.54275604828942
      ],
      [
        "▁ceará",
        -10.544581311739565
      ],
      [
        "▁dura",
        -10.544968165728273
      ],
      [
        "▁52",
        -10.545130125425322
      ],
      [
        "▁baseada",
        -10.54556536373496
      ],
      [
        "vis",
        -10.546007331257528
      ],
      [
        "▁exige",
        -10.546309180152912
      ],
      [
        "▁fãs",
        -10.546362472727887
      ],
      [
        "ân",
        -10.54664533137762
      ],
      [
        "▁coletivo",
        -10.546683616238452
      ],
      [
        "▁europeu",
        -10.547252994759054
      ],
      [
        "▁xix",
        -10.547260567622397
      ],
      [
        "▁nascido",
        -10.547696318437708
      ],
      [
        "▁curitiba",
        -10.54783092918078
      ],
      [
        "▁game",
        -10.548071387032826
      ],
      [
        "▁multa",
        -10.548257039887291
      ],
      [
        "▁roupa",
        -10.549532079617013
      ],
      [
        "▁positivo",
        -10.550009632781606
      ],
      [
        "pan",
        -10.550273834506935
      ],
      [
        "▁administrativo",
        -10.550384142938263
      ],
      [
        "▁méxico",
        -10.55093211323947
      ],
      [
        "▁daquela",
        -10.551139319982791
      ],
      [
        "▁red",
        -10.551229553746124
      ],
      [
        "▁lua",
        -10.551846042156708
      ],
      [
        "▁vigor",
        -10.552836160746056
      ],
      [
        "▁cunha",
        -10.552945924208473
      ],
      [
        "▁cantor",
        -10.553795572023091
      ],
      [
        "▁haverá",
        -10.553824224525666
      ],
      [
        "br",
        -10.55383143157746
      ],
      [
        "▁carnaval",
        -10.554095365978236
      ],
      [
        "▁lançada",
        -10.55470762042432
      ],
      [
        "▁aliança",
        -10.55471561731058
      ],
      [
        "▁medicamentos",
        -10.554927846815524
      ],
      [
        "▁1988",
        -10.554992897585525
      ],
      [
        "▁aumenta",
        -10.555015054835144
      ],
      [
        "izou",
        -10.555198849333154
      ],
      [
        "▁65",
        -10.55565496456758
      ],
      [
        "▁impressão",
        -10.55588028502628
      ],
      [
        "inhas",
        -10.5562197971173
      ],
      [
        "▁fronteira",
        -10.556565591016478
      ],
      [
        "▁mostrando",
        -10.556940833304138
      ],
      [
        "▁conduta",
        -10.55725175935801
      ],
      [
        "del",
        -10.55728879402954
      ],
      [
        "▁alimentar",
        -10.557339333048503
      ],
      [
        "▁wa",
        -10.557855896952782
      ],
      [
        "▁causar",
        -10.558397740849223
      ],
      [
        "entes",
        -10.558652026435622
      ],
      [
        "▁institucional",
        -10.559048488634945
      ],
      [
        "▁caça",
        -10.559569264178798
      ],
      [
        "▁coleção",
        -10.55961396110499
      ],
      [
        "▁desafios",
        -10.55965051456039
      ],
      [
        "cada",
        -10.560143974804385
      ],
      [
        "▁exclusivamente",
        -10.5602751102196
      ],
      [
        "▁abordagem",
        -10.56088869888088
      ],
      [
        "▁índia",
        -10.561584810246774
      ],
      [
        "leg",
        -10.561726580806756
      ],
      [
        "▁declarou",
        -10.561991976189764
      ],
      [
        "▁levado",
        -10.562325309881206
      ],
      [
        "▁biblioteca",
        -10.56236366824726
      ],
      [
        "▁possibilidades",
        -10.562395362080265
      ],
      [
        "▁europeia",
        -10.563217795733228
      ],
      [
        "▁sequer",
        -10.5636738712776
      ],
      [
        "▁laboratório",
        -10.56381262849897
      ],
      [
        "gui",
        -10.564159494783755
      ],
      [
        "▁tira",
        -10.5642931141666
      ],
      [
        "▁mortos",
        -10.564523952045542
      ],
      [
        "▁amiga",
        -10.564553461531174
      ],
      [
        "▁passos",
        -10.56492163291417
      ],
      [
        "▁51",
        -10.56497014872311
      ],
      [
        "▁levantamento",
        -10.565005577845795
      ],
      [
        "bil",
        -10.56564869674932
      ],
      [
        "▁terminou",
        -10.565998251862572
      ],
      [
        "▁concessão",
        -10.56627232594715
      ],
      [
        "▁torcida",
        -10.56655355205488
      ],
      [
        "▁robert",
        -10.566767457816644
      ],
      [
        "▁povos",
        -10.567761112534908
      ],
      [
        "▁achar",
        -10.567763022182666
      ],
      [
        "tri",
        -10.567830830335652
      ],
      [
        "▁rousseff",
        -10.568461048296772
      ],
      [
        "▁consulta",
        -10.56852574968024
      ],
      [
        "▁prima",
        -10.569167946865685
      ],
      [
        "▁menina",
        -10.569844267700306
      ],
      [
        "▁humor",
        -10.569928584657664
      ],
      [
        "▁sente",
        -10.57056524458588
      ],
      [
        "▁vivem",
        -10.570701404971684
      ],
      [
        "ático",
        -10.570988079525227
      ],
      [
        "▁votação",
        -10.570996224867825
      ],
      [
        "▁estrelas",
        -10.571638715337478
      ],
      [
        "▁linda",
        -10.571648343879518
      ],
      [
        "▁ótima",
        -10.571936768227062
      ],
      [
        "▁estratégias",
        -10.572074034141698
      ],
      [
        "▁felicidade",
        -10.572165924348868
      ],
      [
        "pul",
        -10.57260601608613
      ],
      [
        "▁ditadura",
        -10.572718692543694
      ],
      [
        "▁privado",
        -10.572811012664705
      ],
      [
        "▁poesia",
        -10.572936523464447
      ],
      [
        "▁leitores",
        -10.573090418708189
      ],
      [
        "▁taxas",
        -10.573395359021616
      ],
      [
        "▁manifestações",
        -10.57350498052246
      ],
      [
        "▁mental",
        -10.57358005353514
      ],
      [
        "tinha",
        -10.57359138549806
      ],
      [
        "ilha",
        -10.574209832080232
      ],
      [
        "▁tor",
        -10.574999082127842
      ],
      [
        "▁goiás",
        -10.575279717976004
      ],
      [
        "▁regular",
        -10.57554161461894
      ],
      [
        "▁proteger",
        -10.57581748967852
      ],
      [
        "▁servidor",
        -10.57582893225722
      ],
      [
        "▁toque",
        -10.577414886971471
      ],
      [
        "▁lindo",
        -10.57754778499334
      ],
      [
        "▁nomeado",
        -10.577620677416634
      ],
      [
        "▁candidatura",
        -10.57796283213271
      ],
      [
        "▁aprovado",
        -10.577998444054783
      ],
      [
        "▁vender",
        -10.578055286874218
      ],
      [
        "▁fábrica",
        -10.5781938880114
      ],
      [
        "▁doce",
        -10.578261033129015
      ],
      [
        "▁piso",
        -10.57830841853037
      ],
      [
        "▁agir",
        -10.579349725735916
      ],
      [
        "▁pernambuco",
        -10.5795256951013
      ],
      [
        "▁mer",
        -10.57983710296608
      ],
      [
        "▁notas",
        -10.580322365901702
      ],
      [
        "▁ruim",
        -10.580374559066463
      ],
      [
        "▁organismo",
        -10.580563945854744
      ],
      [
        "▁empresários",
        -10.58058705019493
      ],
      [
        "▁abre",
        -10.580786856390498
      ],
      [
        "▁matemática",
        -10.580828507337776
      ],
      [
        "▁sch",
        -10.581162106440972
      ],
      [
        "▁google",
        -10.581813429421176
      ],
      [
        "▁transformação",
        -10.582058028604107
      ],
      [
        "▁fórum",
        -10.582291627862
      ],
      [
        "bul",
        -10.58315520428015
      ],
      [
        "▁49",
        -10.583294554303276
      ],
      [
        "▁fenômeno",
        -10.583773819015184
      ],
      [
        "▁química",
        -10.58396986793172
      ],
      [
        "▁componentes",
        -10.585298677936004
      ],
      [
        "▁continuidade",
        -10.58532181451018
      ],
      [
        "▁rotina",
        -10.585407320802831
      ],
      [
        "▁previsão",
        -10.585838663569968
      ],
      [
        "▁invé",
        -10.58613556404341
      ],
      [
        "▁preservação",
        -10.586389021608028
      ],
      [
        "▁últimas",
        -10.586452380581482
      ],
      [
        "itu",
        -10.58682485110186
      ],
      [
        "▁conservação",
        -10.587587880674748
      ],
      [
        "▁gar",
        -10.588930383743309
      ],
      [
        "▁stf",
        -10.588965938654749
      ],
      [
        "▁alexandre",
        -10.589431908696088
      ],
      [
        "▁recife",
        -10.589670305638224
      ],
      [
        "hor",
        -10.589939361483712
      ],
      [
        "▁tanta",
        -10.59090734959123
      ],
      [
        "▁caro",
        -10.591082339846016
      ],
      [
        "▁garante",
        -10.591465391799314
      ],
      [
        "▁rocha",
        -10.5915002010002
      ],
      [
        "▁equivalente",
        -10.591923237012317
      ],
      [
        "▁parágrafo",
        -10.592005592266815
      ],
      [
        "▁cenas",
        -10.593295809164925
      ],
      [
        "▁conquistou",
        -10.593308780898328
      ],
      [
        "▁legislativo",
        -10.593415127416614
      ],
      [
        "lim",
        -10.59389415335974
      ],
      [
        "▁tese",
        -10.594173090134534
      ],
      [
        "▁pensa",
        -10.594677614126123
      ],
      [
        "tória",
        -10.594863314583977
      ],
      [
        "▁imp",
        -10.595316457890878
      ],
      [
        "▁alteração",
        -10.595490312198454
      ],
      [
        "▁característica",
        -10.595590992196836
      ],
      [
        "▁útil",
        -10.595657957279617
      ],
      [
        "▁errado",
        -10.596102474488976
      ],
      [
        "▁corresponde",
        -10.596228883183011
      ],
      [
        "lica",
        -10.596561436356405
      ],
      [
        "▁prata",
        -10.596604034937592
      ],
      [
        "▁formar",
        -10.596705070195313
      ],
      [
        "▁we",
        -10.59679472762567
      ],
      [
        "▁espero",
        -10.597943052274635
      ],
      [
        "▁contém",
        -10.598091630936649
      ],
      [
        "▁coletiva",
        -10.59857671185718
      ],
      [
        "▁urbano",
        -10.598595974056034
      ],
      [
        "▁equipamento",
        -10.598925267379911
      ],
      [
        "▁estatuto",
        -10.599163019014172
      ],
      [
        "▁espanhol",
        -10.599326541612422
      ],
      [
        "▁fortaleza",
        -10.5994118613457
      ],
      [
        "▁precisamos",
        -10.599542979498189
      ],
      [
        "▁bebê",
        -10.599912703972906
      ],
      [
        "▁moderno",
        -10.600811225659276
      ],
      [
        "▁greve",
        -10.600903197004428
      ],
      [
        "▁necessita",
        -10.600964396592492
      ],
      [
        "▁sinto",
        -10.60110236924009
      ],
      [
        "▁construído",
        -10.601469171046212
      ],
      [
        "▁raça",
        -10.601615401683729
      ],
      [
        "▁cristã",
        -10.602179169853068
      ],
      [
        "▁triste",
        -10.602187070974676
      ],
      [
        "▁atores",
        -10.602756037026248
      ],
      [
        "▁dirigido",
        -10.603392431592036
      ],
      [
        "▁frase",
        -10.603464145488823
      ],
      [
        "▁sérgio",
        -10.60356244296071
      ],
      [
        "pic",
        -10.60375798487926
      ],
      [
        "bat",
        -10.604192645198266
      ],
      [
        "▁coordenação",
        -10.60423492659434
      ],
      [
        "gos",
        -10.604326740587275
      ],
      [
        "▁pauta",
        -10.60444029981474
      ],
      [
        "▁menino",
        -10.604864141913966
      ],
      [
        "▁recém",
        -10.605122664301629
      ],
      [
        "▁correta",
        -10.605257930068092
      ],
      [
        "▁solar",
        -10.605816130792409
      ],
      [
        "▁retirada",
        -10.605975752674714
      ],
      [
        "▁faço",
        -10.606343578067955
      ],
      [
        "▁estudante",
        -10.606972218720262
      ],
      [
        "▁cl",
        -10.607021508102992
      ],
      [
        "▁pertence",
        -10.607034822667265
      ],
      [
        "▁relacionadas",
        -10.607705655027823
      ],
      [
        "▁efetiva",
        -10.60791723788794
      ],
      [
        "▁cas",
        -10.608159500432013
      ],
      [
        "▁inflação",
        -10.608850988103024
      ],
      [
        "▁existir",
        -10.60893081126739
      ],
      [
        "▁revisão",
        -10.611555682947944
      ],
      [
        "ento",
        -10.612208738911988
      ],
      [
        "sin",
        -10.61223729919666
      ],
      [
        "▁ataques",
        -10.612314776036712
      ],
      [
        "▁ribeiro",
        -10.612563571984348
      ],
      [
        "▁profissão",
        -10.612739539017053
      ],
      [
        "nico",
        -10.613568620091687
      ],
      [
        "▁vinho",
        -10.613777514259686
      ],
      [
        "▁sofrer",
        -10.614347922563544
      ],
      [
        "▁recebido",
        -10.615058250033474
      ],
      [
        "▁licença",
        -10.616657839720666
      ],
      [
        "▁tocar",
        -10.616761235400384
      ],
      [
        "kin",
        -10.616890073978846
      ],
      [
        "▁facilmente",
        -10.61703459875912
      ],
      [
        "▁pin",
        -10.617073286776163
      ],
      [
        "▁amplo",
        -10.617379158784102
      ],
      [
        "▁ocidental",
        -10.617383144927446
      ],
      [
        "▁marcou",
        -10.617548049762538
      ],
      [
        "▁classes",
        -10.617718859799782
      ],
      [
        "▁vermelha",
        -10.61782127733672
      ],
      [
        "▁matar",
        -10.6181576634397
      ],
      [
        "ford",
        -10.618551071389277
      ],
      [
        "▁acreditar",
        -10.618790377385128
      ],
      [
        "▁pes",
        -10.618826528985975
      ],
      [
        "▁pará",
        -10.619107403381166
      ],
      [
        "▁cobrança",
        -10.62027680799251
      ],
      [
        "▁inverno",
        -10.62106529610875
      ],
      [
        "▁vidro",
        -10.621168768216227
      ],
      [
        "▁cérebro",
        -10.621377308938214
      ],
      [
        "bol",
        -10.621682391767736
      ],
      [
        "▁concreto",
        -10.62178478237479
      ],
      [
        "▁1992",
        -10.62180657702186
      ],
      [
        "▁reflexão",
        -10.622538442622089
      ],
      [
        "▁arquivo",
        -10.622896103079126
      ],
      [
        "▁edifício",
        -10.623338142982382
      ],
      [
        "▁básico",
        -10.62412831705717
      ],
      [
        "▁estruturas",
        -10.62416922173791
      ],
      [
        "cit",
        -10.62484365964774
      ],
      [
        "▁construída",
        -10.625413585298
      ],
      [
        "▁iniciar",
        -10.625560532041682
      ],
      [
        "▁diversidade",
        -10.6265050782543
      ],
      [
        "▁férias",
        -10.626522810689162
      ],
      [
        "▁eficiente",
        -10.627086044053636
      ],
      [
        "▁esforços",
        -10.62720916823565
      ],
      [
        "ung",
        -10.627233285662015
      ],
      [
        "▁inscrição",
        -10.62775943629526
      ],
      [
        "▁facilidade",
        -10.627829400950928
      ],
      [
        "▁máquinas",
        -10.627993695083887
      ],
      [
        "▁utiliza",
        -10.628381926378736
      ],
      [
        "▁beira",
        -10.628860493687029
      ],
      [
        "▁tre",
        -10.629085272818138
      ],
      [
        "gra",
        -10.629248341876842
      ],
      [
        "▁autora",
        -10.629509264432924
      ],
      [
        "▁controlar",
        -10.629535085145765
      ],
      [
        "▁moto",
        -10.629572524770948
      ],
      [
        "▁2020",
        -10.63024483088497
      ],
      [
        "▁54",
        -10.63038302652108
      ],
      [
        "▁comprimento",
        -10.631270835291506
      ],
      [
        "▁inicia",
        -10.631523543920816
      ],
      [
        "íamos",
        -10.63184512207647
[...]
